#include "magic_wand_model_data.h"


// We need to keep the data array aligned on some architectures.

#ifdef __has_attribute

#define HAVE_ATTRIBUTE(x) __has_attribute(x)

#else

#define HAVE_ATTRIBUTE(x) 0

#endif

#if HAVE_ATTRIBUTE(aligned) || (defined(__GNUC__) && !defined(__clang__))

#define DATA_ALIGN_ATTRIBUTE __attribute__((aligned(4)))

#else

#define DATA_ALIGN_ATTRIBUTE

#endif


const unsigned char g_magic_wand_model_data[] DATA_ALIGN_ATTRIBUTE = {
  0x08, 0x00, 0x00, 0x00, 0x54, 0x46, 0x4c, 0x33, 0x62, 0xff, 0xff, 0xff,
  0x03, 0x00, 0x00, 0x00, 0x10, 0x00, 0x00, 0x00, 0x24, 0x00, 0x00, 0x00,
  0x78, 0x00, 0x00, 0x00, 0x24, 0x00, 0x00, 0x00, 0x05, 0x00, 0x00, 0x00,
  0x78, 0x05, 0x00, 0x00, 0xb0, 0x04, 0x00, 0x00, 0xe0, 0x02, 0x00, 0x00,
  0x60, 0x02, 0x00, 0x00, 0x54, 0x01, 0x00, 0x00, 0x01, 0x00, 0x00, 0x00,
  0x78, 0x00, 0x00, 0x00, 0x13, 0x00, 0x00, 0x00, 0x18, 0x30, 0x00, 0x00,
  0x14, 0x30, 0x00, 0x00, 0x20, 0x2f, 0x00, 0x00, 0xa8, 0x2e, 0x00, 0x00,
  0x3c, 0x2e, 0x00, 0x00, 0xec, 0x11, 0x00, 0x00, 0x98, 0x10, 0x00, 0x00,
  0xbc, 0x0e, 0x00, 0x00, 0x60, 0x06, 0x00, 0x00, 0xfc, 0x05, 0x00, 0x00,
  0x78, 0x05, 0x00, 0x00, 0xec, 0x2f, 0x00, 0x00, 0xe8, 0x2f, 0x00, 0x00,
  0xe4, 0x2f, 0x00, 0x00, 0xe0, 0x2f, 0x00, 0x00, 0xdc, 0x2f, 0x00, 0x00,
  0xd8, 0x2f, 0x00, 0x00, 0xd4, 0x2f, 0x00, 0x00, 0xd0, 0x2f, 0x00, 0x00,
  0x0f, 0x00, 0x00, 0x00, 0x4d, 0x4c, 0x49, 0x52, 0x20, 0x43, 0x6f, 0x6e,
  0x76, 0x65, 0x72, 0x74, 0x65, 0x64, 0x2e, 0x00, 0x00, 0x00, 0x0e, 0x00,
  0x18, 0x00, 0x04, 0x00, 0x08, 0x00, 0x0c, 0x00, 0x10, 0x00, 0x14, 0x00,
  0x0e, 0x00, 0x00, 0x00, 0x14, 0x00, 0x00, 0x00, 0x5c, 0x00, 0x00, 0x00,
  0x60, 0x00, 0x00, 0x00, 0x64, 0x00, 0x00, 0x00, 0x84, 0x00, 0x00, 0x00,
  0x12, 0x00, 0x00, 0x00, 0x48, 0x2f, 0x00, 0x00, 0xe4, 0x2e, 0x00, 0x00,
  0x3c, 0x2e, 0x00, 0x00, 0xd8, 0x2d, 0x00, 0x00, 0x70, 0x2d, 0x00, 0x00,
  0x1c, 0x11, 0x00, 0x00, 0xc0, 0x0f, 0x00, 0x00, 0xe4, 0x0d, 0x00, 0x00,
  0xa0, 0x05, 0x00, 0x00, 0x3c, 0x05, 0x00, 0x00, 0xb0, 0x04, 0x00, 0x00,
  0xe8, 0x03, 0x00, 0x00, 0x38, 0x03, 0x00, 0x00, 0xa4, 0x02, 0x00, 0x00,
  0x10, 0x02, 0x00, 0x00, 0x90, 0x01, 0x00, 0x00, 0xfc, 0x00, 0x00, 0x00,
  0x80, 0x00, 0x00, 0x00, 0x01, 0x00, 0x00, 0x00, 0x00, 0x00, 0x00, 0x00,
  0x01, 0x00, 0x00, 0x00, 0x11, 0x00, 0x00, 0x00, 0x08, 0x00, 0x00, 0x00,
  0x1c, 0x04, 0x00, 0x00, 0x58, 0x03, 0x00, 0x00, 0xc8, 0x02, 0x00, 0x00,
  0x24, 0x02, 0x00, 0x00, 0xac, 0x01, 0x00, 0x00, 0x10, 0x01, 0x00, 0x00,
  0x94, 0x00, 0x00, 0x00, 0x10, 0x00, 0x00, 0x00, 0x04, 0x00, 0x00, 0x00,
  0x6d, 0x61, 0x69, 0x6e, 0x00, 0x00, 0x00, 0x00, 0x8e, 0xff, 0xff, 0xff,
  0x00, 0x00, 0x00, 0x09, 0x04, 0x00, 0x00, 0x00, 0x1c, 0x00, 0x00, 0x00,
  0x10, 0x00, 0x00, 0x00, 0x04, 0x00, 0x00, 0x00, 0x0a, 0xd2, 0xff, 0xff,
  0x00, 0x00, 0x80, 0x3f, 0x01, 0x00, 0x00, 0x00, 0x11, 0x00, 0x00, 0x00,
  0x01, 0x00, 0x00, 0x00, 0x10, 0x00, 0x00, 0x00, 0xf6, 0xfb, 0xff, 0xff,
  0x00, 0x00, 0x00, 0x19, 0x01, 0x00, 0x00, 0x00, 0x8a, 0xd1, 0xff, 0xff,
  0x10, 0x00, 0x00, 0x00, 0x12, 0x00, 0x00, 0x00, 0x14, 0x00, 0x00, 0x00,
  0x20, 0x00, 0x00, 0x00, 0x02, 0x00, 0x00, 0x00, 0x01, 0x00, 0x00, 0x00,
  0x04, 0x00, 0x00, 0x00, 0x08, 0x00, 0x00, 0x00, 0x49, 0x64, 0x65, 0x6e,
  0x74, 0x69, 0x74, 0x79, 0x00, 0x00, 0x00, 0x00, 0xc4, 0xd1, 0xff, 0xff,
  0x00, 0x00, 0x0e, 0x00, 0x18, 0x00, 0x08, 0x00, 0x0c, 0x00, 0x10, 0x00,
  0x07, 0x00, 0x14, 0x00, 0x0e, 0x00, 0x00, 0x00, 0x00, 0x00, 0x00, 0x08,
  0x03, 0x00, 0x00, 0x00, 0x18, 0x00, 0x00, 0x00, 0x0c, 0x00, 0x00, 0x00,
  0x04, 0x00, 0x00, 0x00, 0x98, 0xd1, 0xff, 0xff, 0x01, 0x00, 0x00, 0x00,
  0x10, 0x00, 0x00, 0x00, 0x03, 0x00, 0x00, 0x00, 0x0f, 0x00, 0x00, 0x00,
  0x05, 0x00, 0x00, 0x00, 0x02, 0x00, 0x00, 0x00, 0x02, 0xd2, 0xff, 0xff,
  0x10, 0x00, 0x00, 0x00, 0x11, 0x00, 0x00, 0x00, 0x14, 0x00, 0x00, 0x00,
  0x30, 0x00, 0x00, 0x00, 0x02, 0x00, 0x00, 0x00, 0x01, 0x00, 0x00, 0x00,
  0x04, 0x00, 0x00, 0x00, 0x1a, 0x00, 0x00, 0x00, 0x73, 0x65, 0x71, 0x75,
  0x65, 0x6e, 0x74, 0x69, 0x61, 0x6c, 0x2f, 0x64, 0x65, 0x6e, 0x73, 0x65,
  0x5f, 0x31, 0x2f, 0x42, 0x69, 0x61, 0x73, 0x41, 0x64, 0x64, 0x00, 0x00,
  0xf4, 0xd1, 0xff, 0xff, 0xd6, 0xfd, 0xff, 0xff, 0x00, 0x00, 0x00, 0x08,
  0x03, 0x00, 0x00, 0x00, 0x24, 0x00, 0x00, 0x00, 0x18, 0x00, 0x00, 0x00,
  0x0c, 0x00, 0x00, 0x00, 0x00, 0x00, 0x06, 0x00, 0x08, 0x00, 0x07, 0x00,
  0x06, 0x00, 0x00, 0x00, 0x00, 0x00, 0x00, 0x01, 0x01, 0x00, 0x00, 0x00,
  0x0f, 0x00, 0x00, 0x00, 0x03, 0x00, 0x00, 0x00, 0x0e, 0x00, 0x00, 0x00,
  0x04, 0x00, 0x00, 0x00, 0x01, 0x00, 0x00, 0x00, 0xfe, 0xfc, 0xff, 0xff,
  0x00, 0x00, 0x00, 0x09, 0x01, 0x00, 0x00, 0x00, 0x92, 0xd2, 0xff, 0xff,
  0x10, 0x00, 0x00, 0x00, 0x10, 0x00, 0x00, 0x00, 0x14, 0x00, 0x00, 0x00,
  0x2c, 0x00, 0x00, 0x00, 0x02, 0x00, 0x00, 0x00, 0x01, 0x00, 0x00, 0x00,
  0x10, 0x00, 0x00, 0x00, 0x15, 0x00, 0x00, 0x00, 0x73, 0x65, 0x71, 0x75,
  0x65, 0x6e, 0x74, 0x69, 0x61, 0x6c, 0x2f, 0x64, 0x65, 0x6e, 0x73, 0x65,
  0x2f, 0x52, 0x65, 0x6c, 0x75, 0x00, 0x00, 0x00, 0xd8, 0xd2, 0xff, 0xff,
  0x00, 0x00, 0x0a, 0x00, 0x10, 0x00, 0x04, 0x00, 0x08, 0x00, 0x0c, 0x00,
  0x0a, 0x00, 0x00, 0x00, 0x02, 0x00, 0x00, 0x00, 0x10, 0x00, 0x00, 0x00,
  0x04, 0x00, 0x00, 0x00, 0x01, 0x00, 0x00, 0x00, 0x0e, 0x00, 0x00, 0x00,
  0x02, 0x00, 0x00, 0x00, 0x0d, 0x00, 0x00, 0x00, 0x03, 0x00, 0x00, 0x00,
  0x7a, 0xfd, 0xff, 0xff, 0x00, 0x00, 0x00, 0x16, 0x01, 0x00, 0x00, 0x00,
  0x0e, 0xd3, 0xff, 0xff, 0x10, 0x00, 0x00, 0x00, 0x0f, 0x00, 0x00, 0x00,
  0x14, 0x00, 0x00, 0x00, 0x30, 0x00, 0x00, 0x00, 0x02, 0x00, 0x00, 0x00,
  0x01, 0x00, 0x00, 0x00, 0x70, 0x00, 0x00, 0x00, 0x1a, 0x00, 0x00, 0x00,
  0x73, 0x65, 0x71, 0x75, 0x65, 0x6e, 0x74, 0x69, 0x61, 0x6c, 0x2f, 0x66,
  0x6c, 0x61, 0x74, 0x74, 0x65, 0x6e, 0x2f, 0x52, 0x65, 0x73, 0x68, 0x61,
  0x70, 0x65, 0x00, 0x00, 0x00, 0xd3, 0xff, 0xff, 0xe2, 0xfe, 0xff, 0xff,
  0x00, 0x00, 0x00, 0x05, 0x01, 0x00, 0x00, 0x00, 0x38, 0x00, 0x00, 0x00,
  0x2c, 0x00, 0x00, 0x00, 0x14, 0x00, 0x00, 0x00, 0x00, 0x00, 0x0e, 0x00,
  0x14, 0x00, 0x00, 0x00, 0x10, 0x00, 0x0c, 0x00, 0x08, 0x00, 0x04, 0x00,
  0x0e, 0x00, 0x00, 0x00, 0x03, 0x00, 0x00, 0x00, 0x01, 0x00, 0x00, 0x00,
  0x03, 0x00, 0x00, 0x00, 0x01, 0x00, 0x00, 0x00, 0x01, 0x00, 0x00, 0x00,
  0x0d, 0x00, 0x00, 0x00, 0x01, 0x00, 0x00, 0x00, 0x0c, 0x00, 0x00, 0x00,
  0x9e, 0xd3, 0xff, 0xff, 0x10, 0x00, 0x00, 0x00, 0x0e, 0x00, 0x00, 0x00,
  0x1c, 0x00, 0x00, 0x00, 0x40, 0x00, 0x00, 0x00, 0x04, 0x00, 0x00, 0x00,
  0x01, 0x00, 0x00, 0x00, 0x07, 0x00, 0x00, 0x00, 0x01, 0x00, 0x00, 0x00,
  0x10, 0x00, 0x00, 0x00, 0x22, 0x00, 0x00, 0x00, 0x73, 0x65, 0x71, 0x75,
  0x65, 0x6e, 0x74, 0x69, 0x61, 0x6c, 0x2f, 0x6d, 0x61, 0x78, 0x5f, 0x70,
  0x6f, 0x6f, 0x6c, 0x69, 0x6e, 0x67, 0x32, 0x64, 0x5f, 0x31, 0x2f, 0x4d,
  0x61, 0x78, 0x50, 0x6f, 0x6f, 0x6c, 0x00, 0x00, 0xa0, 0xd3, 0xff, 0xff,
  0xc2, 0xfe, 0xff, 0xff, 0x00, 0x00, 0x00, 0x01, 0x24, 0x00, 0x00, 0x00,
  0x18, 0x00, 0x00, 0x00, 0x04, 0x00, 0x00, 0x00, 0xb4, 0xfe, 0xff, 0xff,
  0x01, 0x00, 0x00, 0x00, 0x01, 0x00, 0x00, 0x00, 0x00, 0x00, 0x00, 0x01,
  0x01, 0x00, 0x00, 0x00, 0x0c, 0x00, 0x00, 0x00, 0x03, 0x00, 0x00, 0x00,
  0x0b, 0x00, 0x00, 0x00, 0x07, 0x00, 0x00, 0x00, 0x09, 0x00, 0x00, 0x00,
  0x2e, 0xd4, 0xff, 0xff, 0x10, 0x00, 0x00, 0x00, 0x0d, 0x00, 0x00, 0x00,
  0x1c, 0x00, 0x00, 0x00, 0x2c, 0x00, 0x00, 0x00, 0x04, 0x00, 0x00, 0x00,
  0x01, 0x00, 0x00, 0x00, 0x15, 0x00, 0x00, 0x00, 0x01, 0x00, 0x00, 0x00,
  0x10, 0x00, 0x00, 0x00, 0x0c, 0x00, 0x00, 0x00, 0x74, 0x66, 0x6c, 0x2e,
  0x63, 0x6f, 0x6e, 0x76, 0x5f, 0x32, 0x64, 0x31, 0x00, 0x00, 0x00, 0x00,
  0x74, 0xd4, 0xff, 0xff, 0x00, 0x00, 0x0e, 0x00, 0x1a, 0x00, 0x08, 0x00,
  0x0c, 0x00, 0x10, 0x00, 0x07, 0x00, 0x14, 0x00, 0x0e, 0x00, 0x00, 0x00,
  0x00, 0x00, 0x00, 0x05, 0x01, 0x00, 0x00, 0x00, 0x3c, 0x00, 0x00, 0x00,
  0x30, 0x00, 0x00, 0x00, 0x14, 0x00, 0x00, 0x00, 0x00, 0x00, 0x0e, 0x00,
  0x18, 0x00, 0x17, 0x00, 0x10, 0x00, 0x0c, 0x00, 0x08, 0x00, 0x04, 0x00,
  0x0e, 0x00, 0x00, 0x00, 0x03, 0x00, 0x00, 0x00, 0x03, 0x00, 0x00, 0x00,
  0x03, 0x00, 0x00, 0x00, 0x03, 0x00, 0x00, 0x00, 0x00, 0x00, 0x00, 0x01,
  0x01, 0x00, 0x00, 0x00, 0x0b, 0x00, 0x00, 0x00, 0x01, 0x00, 0x00, 0x00,
  0x0a, 0x00, 0x00, 0x00, 0x46, 0xff, 0xff, 0xff, 0x00, 0x00, 0x00, 0x11,
  0x01, 0x00, 0x00, 0x00, 0xda, 0xd4, 0xff, 0xff, 0x10, 0x00, 0x00, 0x00,
  0x0c, 0x00, 0x00, 0x00, 0x1c, 0x00, 0x00, 0x00, 0x40, 0x00, 0x00, 0x00,
  0x04, 0x00, 0x00, 0x00, 0x01, 0x00, 0x00, 0x00, 0x15, 0x00, 0x00, 0x00,
  0x01, 0x00, 0x00, 0x00, 0x08, 0x00, 0x00, 0x00, 0x20, 0x00, 0x00, 0x00,
  0x73, 0x65, 0x71, 0x75, 0x65, 0x6e, 0x74, 0x69, 0x61, 0x6c, 0x2f, 0x6d,
  0x61, 0x78, 0x5f, 0x70, 0x6f, 0x6f, 0x6c, 0x69, 0x6e, 0x67, 0x32, 0x64,
  0x2f, 0x4d, 0x61, 0x78, 0x50, 0x6f, 0x6f, 0x6c, 0x00, 0x00, 0x00, 0x00,
  0x34, 0xd5, 0xff, 0xff, 0x00, 0x00, 0x0e, 0x00, 0x14, 0x00, 0x00, 0x00,
  0x08, 0x00, 0x0c, 0x00, 0x07, 0x00, 0x10, 0x00, 0x0e, 0x00, 0x00, 0x00,
  0x00, 0x00, 0x00, 0x01, 0x30, 0x00, 0x00, 0x00, 0x24, 0x00, 0x00, 0x00,
  0x10, 0x00, 0x00, 0x00, 0x0c, 0x00, 0x10, 0x00, 0x00, 0x00, 0x04, 0x00,
  0x08, 0x00, 0x0f, 0x00, 0x0c, 0x00, 0x00, 0x00, 0x01, 0x00, 0x00, 0x00,
  0x01, 0x00, 0x00, 0x00, 0x00, 0x00, 0x00, 0x01, 0x01, 0x00, 0x00, 0x00,
  0x0a, 0x00, 0x00, 0x00, 0x03, 0x00, 0x00, 0x00, 0x00, 0x00, 0x00, 0x00,
  0x06, 0x00, 0x00, 0x00, 0x08, 0x00, 0x00, 0x00, 0x00, 0x00, 0x0a, 0x00,
  0x0c, 0x00, 0x07, 0x00, 0x00, 0x00, 0x08, 0x00, 0x0a, 0x00, 0x00, 0x00,
  0x00, 0x00, 0x00, 0x03, 0x01, 0x00, 0x00, 0x00, 0x9e, 0xd5, 0xff, 0xff,
  0x10, 0x00, 0x00, 0x00, 0x0b, 0x00, 0x00, 0x00, 0x1c, 0x00, 0x00, 0x00,
  0x28, 0x00, 0x00, 0x00, 0x04, 0x00, 0x00, 0x00, 0x01, 0x00, 0x00, 0x00,
  0x40, 0x00, 0x00, 0x00, 0x03, 0x00, 0x00, 0x00, 0x08, 0x00, 0x00, 0x00,
  0x0b, 0x00, 0x00, 0x00, 0x74, 0x66, 0x6c, 0x2e, 0x63, 0x6f, 0x6e, 0x76,
  0x5f, 0x32, 0x64, 0x00, 0x88, 0xd5, 0xff, 0xff, 0x7e, 0xd6, 0xff, 0xff,
  0x04, 0x00, 0x00, 0x00, 0x40, 0x00, 0x00, 0x00, 0x84, 0x95, 0xcc, 0xbf,
  0x46, 0xdc, 0x82, 0xbf, 0x37, 0x67, 0x96, 0xbf, 0x54, 0xfe, 0x1e, 0xbe,
  0x2d, 0xc6, 0x01, 0x3e, 0x4c, 0xda, 0xa1, 0xbf, 0xfc, 0xc5, 0x3a, 0xbf,
  0x42, 0xa4, 0x9f, 0xbe, 0xf0, 0x65, 0x10, 0x40, 0x62, 0xb4, 0x9d, 0xbd,
  0x2e, 0xcc, 0x51, 0xbe, 0xba, 0x19, 0x35, 0x3e, 0xee, 0x6a, 0x63, 0xbb,
  0xc9, 0xe4, 0x1b, 0xbf, 0x86, 0x9b, 0x2f, 0x3f, 0x86, 0x73, 0x55, 0x3e,
  0x26, 0xd6, 0xff, 0xff, 0x10, 0x00, 0x00, 0x00, 0x0a, 0x00, 0x00, 0x00,
  0x10, 0x00, 0x00, 0x00, 0x20, 0x00, 0x00, 0x00, 0x01, 0x00, 0x00, 0x00,
  0x10, 0x00, 0x00, 0x00, 0x0d, 0x00, 0x00, 0x00, 0x73, 0x74, 0x64, 0x2e,
  0x63, 0x6f, 0x6e, 0x73, 0x74, 0x61, 0x6e, 0x74, 0x31, 0x00, 0x00, 0x00,
  0x08, 0xd6, 0xff, 0xff, 0xfe, 0xd6, 0xff, 0xff, 0x04, 0x00, 0x00, 0x00,
  0x20, 0x00, 0x00, 0x00, 0x40, 0x19, 0xbd, 0xbf, 0x4b, 0xf3, 0x99, 0xbf,
  0x6c, 0xe8, 0x75, 0xbf, 0xa9, 0x20, 0xf2, 0xbf, 0x5f, 0x89, 0xd0, 0xbe,
  0xd7, 0x5c, 0x10, 0xc0, 0x15, 0xf1, 0x07, 0xc0, 0x28, 0xb8, 0x06, 0xbf,
  0x86, 0xd6, 0xff, 0xff, 0x10, 0x00, 0x00, 0x00, 0x09, 0x00, 0x00, 0x00,
  0x10, 0x00, 0x00, 0x00, 0x20, 0x00, 0x00, 0x00, 0x01, 0x00, 0x00, 0x00,
  0x08, 0x00, 0x00, 0x00, 0x0c, 0x00, 0x00, 0x00, 0x73, 0x74, 0x64, 0x2e,
  0x63, 0x6f, 0x6e, 0x73, 0x74, 0x61, 0x6e, 0x74, 0x00, 0x00, 0x00, 0x00,
  0x68, 0xd6, 0xff, 0xff, 0x5e, 0xd7, 0xff, 0xff, 0x04, 0x00, 0x00, 0x00,
  0x00, 0x08, 0x00, 0x00, 0x6f, 0x34, 0x9f, 0xbe, 0x1e, 0x4b, 0x6b, 0xbe,
  0x1a, 0x8f, 0xb7, 0x3b, 0xa5, 0x6a, 0xc7, 0xbe, 0xe7, 0xb1, 0x2a, 0xbe,
  0x90, 0xaf, 0x19, 0xbd, 0x18, 0xdf, 0xef, 0xbe, 0x6a, 0xcb, 0x39, 0xbd,
  0x51, 0x63, 0x86, 0x3b, 0xaa, 0xed, 0xff, 0x3e, 0x0d, 0x43, 0x2e, 0xbe,
  0xe2, 0x2e, 0x5e, 0xbe, 0x3b, 0xd0, 0xd0, 0xbe, 0x66, 0x26, 0x7a, 0x3e,
  0x26, 0xd1, 0xf9, 0xbc, 0xe6, 0xc4, 0xed, 0xbc, 0xc0, 0xdb, 0xfc, 0xbd,
  0x90, 0xdd, 0xd2, 0x3d, 0x6a, 0x78, 0x57, 0xbe, 0x6a, 0xfa, 0xcf, 0x3c,
  0x98, 0x5e, 0x56, 0xbe, 0x20, 0x4c, 0x2c, 0x3d, 0x53, 0x26, 0xaa, 0x3e,
  0x1d, 0xcf, 0xc5, 0x3c, 0x04, 0x5b, 0xbc, 0xbe, 0xe4, 0x9a, 0x63, 0xbe,
  0xd8, 0x83, 0x43, 0x3e, 0xbf, 0x47, 0x7c, 0x3d, 0x51, 0x1f, 0x43, 0xbd,
  0x64, 0x72, 0x67, 0xbe, 0xc4, 0xed, 0xf6, 0x3d, 0x4f, 0xa5, 0xba, 0xbd,
  0x85, 0x3d, 0xa6, 0x3e, 0x2f, 0x53, 0x69, 0x3c, 0xce, 0x38, 0xbe, 0x3d,
  0x4b, 0xb4, 0xc4, 0x3e, 0xa7, 0xb1, 0x5d, 0x3d, 0x53, 0x5c, 0x83, 0xbe,
  0xe1, 0xa5, 0x50, 0xbd, 0x8c, 0x58, 0x9c, 0xbd, 0x85, 0x7b, 0x1a, 0xbd,
  0x03, 0x51, 0x38, 0xbd, 0x72, 0xdc, 0xfb, 0xbc, 0xfe, 0x26, 0x36, 0xbd,
  0x58, 0x26, 0x6f, 0xbe, 0x26, 0x21, 0x0b, 0xbe, 0xae, 0x41, 0x9f, 0x3e,
  0xbc, 0xe4, 0x63, 0xbe, 0xdd, 0xe9, 0x49, 0x3e, 0x34, 0x1a, 0x72, 0xbe,
  0x28, 0xb3, 0x13, 0xbc, 0x3d, 0xbe, 0x76, 0xbe, 0x77, 0x77, 0x91, 0xbe,
  0x3d, 0x78, 0x00, 0xbd, 0xdd, 0xcf, 0x96, 0x3d, 0x90, 0xe5, 0xf7, 0xbd,
  0x3e, 0x9c, 0x56, 0x3d, 0x7e, 0xb4, 0xb5, 0xbe, 0xe1, 0x7a, 0xe8, 0xbb,
  0x0e, 0xe3, 0x86, 0xbe, 0xfe, 0xeb, 0x31, 0xbe, 0xc2, 0x29, 0xaf, 0x3d,
  0x61, 0x89, 0x98, 0x3e, 0x2f, 0x49, 0x1d, 0xbe, 0x2c, 0x05, 0x03, 0x3e,
  0xac, 0xeb, 0xf5, 0x3d, 0x4c, 0x00, 0x03, 0xbe, 0xa4, 0x84, 0xcc, 0xbe,
  0xda, 0xf7, 0xa0, 0xbe, 0x88, 0x60, 0x27, 0x3e, 0x4c, 0xd4, 0xaa, 0xbd,
  0xad, 0x45, 0x90, 0x3d, 0x8a, 0x8f, 0xc5, 0x3e, 0x18, 0x67, 0xe1, 0x3e,
  0xa5, 0x6d, 0xc7, 0xbe, 0xe4, 0x3e, 0xff, 0xbd, 0xd8, 0x14, 0xaa, 0xbe,
  0x8e, 0x16, 0x46, 0xbe, 0x62, 0x07, 0xde, 0x3d, 0xa6, 0x41, 0x01, 0x3e,
  0x25, 0x09, 0xea, 0xbe, 0xe3, 0xfe, 0xef, 0xbe, 0xc1, 0x0b, 0x36, 0xbc,
  0x06, 0xf6, 0xdf, 0x3d, 0xec, 0xcd, 0x43, 0xbd, 0xc7, 0xfa, 0xb9, 0xbe,
  0x60, 0xfc, 0xb6, 0x3e, 0xa9, 0xb2, 0xc9, 0xbd, 0xe9, 0x82, 0xe5, 0xbd,
  0x8e, 0x12, 0xba, 0xbe, 0xbc, 0x02, 0x1c, 0x3e, 0xcd, 0xfa, 0xcd, 0xba,
  0xa5, 0x76, 0x86, 0xbe, 0x27, 0xa9, 0xcd, 0x3c, 0xda, 0xe2, 0xc9, 0xbc,
  0x4e, 0x55, 0x7d, 0xbe, 0xb1, 0x95, 0x99, 0xbe, 0xd2, 0x1d, 0x52, 0xbd,
  0x14, 0x02, 0x5e, 0xbd, 0x2d, 0x5a, 0x92, 0xbd, 0x79, 0x5e, 0x7f, 0xbd,
  0x09, 0xbd, 0x50, 0xbe, 0x1c, 0x8e, 0x0b, 0xbe, 0x62, 0xbe, 0xc5, 0xbd,
  0x46, 0xc0, 0xa6, 0xbd, 0xff, 0xc1, 0x2e, 0x3d, 0x0a, 0x1e, 0xb0, 0xbc,
  0xd1, 0xca, 0xf2, 0x3e, 0x1b, 0x9f, 0x87, 0xbd, 0xa2, 0x9f, 0x78, 0xbd,
  0x6f, 0x01, 0xa8, 0xbd, 0x6d, 0x5b, 0xaa, 0xbd, 0x91, 0x8e, 0x77, 0xbe,
  0xf4, 0x46, 0x13, 0xbe, 0x13, 0xfd, 0xba, 0xbd, 0xb5, 0xbc, 0x5c, 0xbe,
  0x0c, 0xbf, 0x52, 0xbd, 0x04, 0x90, 0xa3, 0xbe, 0xc1, 0xb4, 0x09, 0xbf,
  0x1b, 0xf9, 0x2e, 0x3e, 0x36, 0x73, 0x1c, 0xbe, 0xe8, 0x15, 0x13, 0x3e,
  0x68, 0xf6, 0x80, 0xbd, 0x80, 0x28, 0x00, 0xbe, 0xc4, 0x7f, 0xf6, 0x3c,
  0xa2, 0x01, 0x76, 0xbe, 0x88, 0x57, 0x64, 0xbe, 0xaa, 0x7e, 0x83, 0xbd,
  0x6a, 0x3f, 0x39, 0x3d, 0x20, 0xea, 0x8b, 0x3e, 0x22, 0x0f, 0x84, 0x3d,
  0xf3, 0xe6, 0x33, 0xbe, 0xbe, 0xc7, 0x19, 0x3e, 0x2f, 0x44, 0xd6, 0xbe,
  0xb9, 0xe3, 0x88, 0x3c, 0xc0, 0xfa, 0xa6, 0xbd, 0xca, 0x15, 0x60, 0xbd,
  0x68, 0x6e, 0x92, 0xbd, 0x72, 0x88, 0x84, 0xbd, 0xd0, 0xb6, 0x85, 0xbe,
  0xf7, 0xcf, 0x5d, 0x3c, 0xe4, 0x29, 0xb7, 0xbe, 0x27, 0xeb, 0xf8, 0xbd,
  0x65, 0x0f, 0x29, 0xbe, 0x24, 0xcb, 0xb2, 0xba, 0x08, 0xb2, 0x32, 0x3e,
  0xf6, 0x2f, 0xbf, 0xbc, 0x58, 0x1e, 0xb2, 0xbe, 0x1d, 0x93, 0xa9, 0x3d,
  0x55, 0x93, 0x29, 0xbd, 0x1f, 0x0d, 0x19, 0xbe, 0x98, 0x7f, 0x21, 0xbe,
  0xe7, 0xe1, 0x62, 0x3e, 0x9d, 0xd6, 0x87, 0x3d, 0x78, 0x8e, 0xf1, 0x3c,
  0xc0, 0xc6, 0xdb, 0xbd, 0xe5, 0x0e, 0xa1, 0x3d, 0xe1, 0x36, 0xe1, 0xbc,
  0x90, 0xce, 0x29, 0x3e, 0xd3, 0xec, 0xcc, 0xbc, 0x5a, 0x82, 0xfe, 0xbe,
  0xc3, 0xe6, 0xa7, 0xbe, 0x04, 0x1d, 0x2d, 0xbd, 0x98, 0x20, 0x87, 0xbd,
  0x18, 0x66, 0x91, 0x3e, 0xd0, 0xdf, 0xea, 0xbd, 0xc9, 0x94, 0xfe, 0xbd,
  0xcc, 0x70, 0xf8, 0xbd, 0x87, 0x9c, 0x55, 0xbe, 0x3a, 0x9e, 0xc7, 0x3d,
  0xb6, 0xf5, 0x14, 0x3e, 0x34, 0x40, 0xf5, 0x3b, 0x5e, 0x02, 0x11, 0x3e,
  0x64, 0xcf, 0x4c, 0xbe, 0x95, 0xf5, 0x18, 0xbe, 0x3e, 0x41, 0xd5, 0xbd,
  0x5b, 0x2b, 0xe3, 0x3e, 0x56, 0xe6, 0x58, 0x3d, 0xe4, 0xb3, 0x8c, 0xbd,
  0x0e, 0x99, 0xe0, 0x3e, 0x2d, 0x5c, 0x68, 0xbe, 0x1b, 0xb3, 0x7c, 0xbe,
  0x62, 0x08, 0x2d, 0x3d, 0x99, 0xde, 0xd0, 0xbe, 0x0c, 0x0f, 0xcf, 0x3d,
  0x94, 0x55, 0x40, 0xbd, 0x63, 0x8f, 0x60, 0xbd, 0x69, 0x24, 0x13, 0xbd,
  0xca, 0x34, 0xae, 0xbe, 0x6f, 0x4f, 0x0c, 0xbd, 0x5f, 0x64, 0xbd, 0x3d,
  0x0c, 0x97, 0x9f, 0xbe, 0x21, 0x2d, 0x94, 0x3e, 0x33, 0x15, 0x4e, 0xbd,
  0xfe, 0xed, 0x02, 0xbf, 0x00, 0x95, 0x12, 0xbf, 0xc7, 0x9a, 0x98, 0xbd,
  0x21, 0x31, 0xb8, 0xbd, 0x3f, 0xee, 0x1b, 0x3d, 0x95, 0x8b, 0x17, 0xbe,
  0x99, 0x35, 0x42, 0x3d, 0x44, 0x5f, 0xbd, 0xbc, 0x17, 0x42, 0xd1, 0xbe,
  0x15, 0xc8, 0x17, 0xbf, 0xc7, 0x4f, 0xcb, 0xbd, 0xfa, 0x35, 0x1c, 0x3f,
  0x25, 0xcc, 0x8c, 0x3d, 0x5d, 0x39, 0x3b, 0xbd, 0x74, 0xf1, 0xfd, 0xbc,
  0x11, 0x4d, 0xb1, 0x3c, 0xbc, 0xb9, 0xea, 0xbe, 0xee, 0xf2, 0x5f, 0x3c,
  0xcf, 0x53, 0xc7, 0xbd, 0x0b, 0x7e, 0x60, 0xbe, 0x8f, 0xfe, 0x8f, 0x3d,
  0xa8, 0x62, 0x2d, 0xbd, 0x08, 0x72, 0xb1, 0xbd, 0x29, 0x68, 0x50, 0xbd,
  0x9e, 0x24, 0x89, 0xbe, 0xb4, 0xc8, 0xf5, 0x3e, 0x51, 0xd7, 0x0e, 0xbe,
  0x2f, 0x4a, 0x88, 0xbe, 0xc1, 0x56, 0x6c, 0xbb, 0x30, 0xf3, 0x69, 0xbd,
  0x9f, 0xf1, 0x19, 0xbe, 0xbb, 0x85, 0x6f, 0xbd, 0x14, 0x3b, 0x16, 0xbf,
  0x83, 0x3b, 0x83, 0x3d, 0x82, 0x6f, 0x24, 0xbe, 0x10, 0x36, 0xda, 0xbe,
  0xbc, 0x95, 0x08, 0x3b, 0x32, 0x17, 0x2c, 0xbe, 0x61, 0xe8, 0xc4, 0xbc,
  0xcd, 0x3c, 0x8d, 0xbd, 0x57, 0x32, 0x02, 0xbf, 0xa5, 0x9e, 0xd0, 0x3e,
  0x2f, 0xfc, 0x23, 0xbe, 0xa5, 0x86, 0x8e, 0xbb, 0xe1, 0xb8, 0x85, 0x3d,
  0xce, 0x7d, 0xb6, 0xbd, 0x71, 0xda, 0x57, 0x3e, 0xa2, 0x36, 0xca, 0xbd,
  0x0f, 0xd8, 0x52, 0xbf, 0xf5, 0xd5, 0x96, 0x3e, 0xc0, 0x3c, 0xfd, 0xbc,
  0x1e, 0xc5, 0x75, 0x3d, 0xa7, 0xf8, 0x22, 0xbd, 0xa3, 0x28, 0x8c, 0xbc,
  0xea, 0x8c, 0x25, 0x3e, 0x1c, 0x9a, 0xb5, 0xbd, 0xb8, 0xee, 0x5e, 0xbf,
  0x59, 0xd5, 0xdf, 0xbe, 0x67, 0xbf, 0xe7, 0xbc, 0x6e, 0xc0, 0xc0, 0x3d,
  0xed, 0x36, 0x88, 0x3e, 0x41, 0xdc, 0x7b, 0x3d, 0x62, 0x92, 0x86, 0xbe,
  0x28, 0x8c, 0x94, 0xbe, 0xfc, 0x7f, 0xd7, 0xbd, 0x5b, 0x48, 0x5c, 0xbe,
  0x6f, 0xae, 0x87, 0xbd, 0xcf, 0xea, 0xca, 0xbe, 0xa6, 0xf4, 0x1d, 0xbd,
  0xa0, 0x6e, 0x14, 0xbe, 0x2a, 0xbc, 0xa3, 0xbd, 0xbf, 0x2c, 0x85, 0x3e,
  0x29, 0xc8, 0x02, 0xbd, 0x81, 0x29, 0x7f, 0x3e, 0x39, 0x9d, 0x80, 0xbe,
  0x0d, 0x3e, 0x9e, 0xbc, 0xa2, 0x94, 0xe8, 0x3c, 0xa2, 0x03, 0x31, 0xbe,
  0xc6, 0xfc, 0x82, 0xbe, 0x85, 0xf9, 0x3a, 0xbd, 0x8a, 0x08, 0x4c, 0xbc,
  0x5d, 0xce, 0xf4, 0xbd, 0x37, 0x47, 0xa4, 0xbe, 0x23, 0x93, 0x5f, 0x3c,
  0x8a, 0x84, 0xb1, 0xbe, 0x74, 0xe1, 0x1f, 0xbe, 0x3c, 0x21, 0x25, 0x3d,
  0x78, 0xe6, 0x2a, 0x3e, 0x7c, 0x7d, 0x7e, 0x3b, 0xa2, 0xd1, 0xca, 0x3d,
  0x6a, 0xae, 0x02, 0xbe, 0xfe, 0x5e, 0x7e, 0xbe, 0x47, 0x78, 0x25, 0xbe,
  0x7b, 0x51, 0x8d, 0xbe, 0xb0, 0x3d, 0xb5, 0xbc, 0xba, 0xd4, 0x4b, 0xbd,
  0x60, 0xad, 0xf5, 0xbd, 0xcb, 0x83, 0x81, 0x3d, 0x79, 0xd6, 0x81, 0x3a,
  0x13, 0x08, 0x24, 0xbe, 0x42, 0xa6, 0x73, 0x3e, 0x9d, 0x37, 0x0a, 0x3c,
  0xcc, 0xdd, 0xa7, 0x3d, 0xce, 0x06, 0x09, 0x3e, 0xae, 0xb3, 0xb3, 0xbd,
  0x5a, 0x87, 0x49, 0x3d, 0xbc, 0x64, 0x28, 0xbd, 0xf9, 0x25, 0x3b, 0x3e,
  0xc4, 0x61, 0xe1, 0xbb, 0xff, 0xb6, 0x82, 0xbc, 0xe0, 0x76, 0x74, 0x3c,
  0x25, 0x88, 0x26, 0x3e, 0x8c, 0xeb, 0xe6, 0xbd, 0x22, 0x5c, 0x96, 0x3e,
  0x38, 0x87, 0x55, 0xbd, 0xa0, 0xf1, 0x59, 0x3c, 0x94, 0xaf, 0x6b, 0x3e,
  0x92, 0x80, 0x87, 0x3d, 0xa5, 0x31, 0xc5, 0x3c, 0x23, 0x9b, 0xda, 0x3d,
  0xbc, 0xc3, 0x20, 0xbe, 0x00, 0xec, 0xbc, 0xbc, 0x73, 0xd5, 0xe1, 0x3c,
  0xf0, 0x1f, 0x20, 0xbe, 0x5f, 0xbd, 0x98, 0xbe, 0x26, 0x8a, 0xab, 0x3c,
  0x64, 0x55, 0x0e, 0x3e, 0xbd, 0x72, 0x62, 0x3d, 0xf6, 0x9f, 0x89, 0xbd,
  0xa7, 0xf2, 0x13, 0xbd, 0x7d, 0xd9, 0x2c, 0xbd, 0x5d, 0x95, 0x51, 0xbe,
  0xcf, 0x08, 0x57, 0x3e, 0x3c, 0x9e, 0xa5, 0xbd, 0xbe, 0xe9, 0xd9, 0x3d,
  0x5f, 0x89, 0x40, 0x3e, 0x19, 0x17, 0xe2, 0xbd, 0xc9, 0xf3, 0x81, 0xbc,
  0x21, 0x91, 0x9e, 0xbc, 0xb5, 0x3d, 0xa6, 0x3e, 0x96, 0xcf, 0x2b, 0x3d,
  0x00, 0x2b, 0x3d, 0xbd, 0xfd, 0xe9, 0x1f, 0xbd, 0xce, 0x09, 0x23, 0x3c,
  0x54, 0x79, 0x8f, 0xbd, 0xa8, 0x97, 0x5d, 0x3e, 0xb4, 0x46, 0x8d, 0x3c,
  0xb8, 0xf3, 0xc8, 0xbd, 0x0d, 0x01, 0x85, 0x3e, 0x99, 0x11, 0xc6, 0xbd,
  0x73, 0xab, 0xf3, 0xbd, 0x66, 0xcf, 0x56, 0xbd, 0xa5, 0x01, 0x3f, 0xbd,
  0x17, 0xd5, 0x33, 0x3d, 0x91, 0xce, 0xdd, 0xbc, 0x39, 0x8f, 0xa5, 0xbc,
  0x41, 0x30, 0x3d, 0x3e, 0x6b, 0x77, 0xd3, 0xbd, 0x5f, 0x35, 0x14, 0xbe,
  0x98, 0x50, 0x6b, 0xbd, 0x35, 0xd0, 0x87, 0x3e, 0x2d, 0xc3, 0xcf, 0xbd,
  0xd8, 0x85, 0xd0, 0xbd, 0xde, 0x5b, 0x22, 0xbe, 0xb9, 0x52, 0xbc, 0xbe,
  0xe9, 0xeb, 0xc0, 0xbc, 0xbf, 0x7a, 0xb7, 0x3d, 0x29, 0x5a, 0x22, 0xbd,
  0x06, 0xa8, 0x16, 0xbd, 0x18, 0x33, 0x55, 0xbd, 0x1e, 0x34, 0xf6, 0x3c,
  0x7e, 0xc6, 0x82, 0xbc, 0x87, 0x1f, 0x83, 0xbe, 0x4e, 0xca, 0xf3, 0xbc,
  0xe3, 0x5a, 0x7a, 0x3c, 0xa8, 0xa7, 0x43, 0x3d, 0x7d, 0x8f, 0xdd, 0x3b,
  0xa6, 0x02, 0x5e, 0xbd, 0xa1, 0x8a, 0x9d, 0x3d, 0x54, 0xda, 0x89, 0xbd,
  0x2d, 0x00, 0x51, 0xbe, 0x13, 0x5f, 0xe1, 0xbd, 0xf8, 0xe6, 0xe3, 0xbd,
  0x3a, 0xf8, 0x21, 0x3e, 0x0f, 0xe8, 0x49, 0x3d, 0xcf, 0x2d, 0x02, 0xbd,
  0xb2, 0x54, 0x9c, 0xbd, 0x65, 0xe8, 0xe4, 0xbd, 0x0b, 0x4f, 0x66, 0xbe,
  0xd7, 0xa5, 0x1b, 0xbd, 0xaf, 0x15, 0x98, 0x3e, 0xe6, 0xea, 0x26, 0x3d,
  0xac, 0xa8, 0x11, 0x3e, 0xfa, 0x63, 0x22, 0x3e, 0xba, 0x69, 0x7e, 0xbe,
  0xe1, 0x6c, 0xc7, 0x3c, 0xc2, 0xfb, 0xe2, 0x3d, 0x47, 0xa7, 0xa6, 0xbe,
  0x40, 0xf5, 0xf8, 0x3c, 0xe3, 0x4e, 0x61, 0xbe, 0x0b, 0x15, 0xdd, 0xbd,
  0x3d, 0x23, 0xfe, 0xbd, 0xff, 0xe3, 0xb5, 0xbe, 0xb8, 0x0b, 0x5c, 0x3a,
  0x20, 0x9e, 0xce, 0xbc, 0x7a, 0xbb, 0xaf, 0xbe, 0xbc, 0x63, 0x2a, 0x3e,
  0xa2, 0x27, 0x82, 0xbe, 0x26, 0x05, 0x35, 0xbe, 0x48, 0xf8, 0x8c, 0xbe,
  0xfa, 0x5d, 0x12, 0xbe, 0xf5, 0xa3, 0x11, 0xbd, 0x63, 0xf0, 0x71, 0x3e,
  0x6f, 0x60, 0x0d, 0xbe, 0x5b, 0x0c, 0x1c, 0x3d, 0x66, 0x25, 0x5c, 0xbe,
  0xd9, 0x5d, 0x1e, 0xbe, 0x89, 0xea, 0x50, 0xbe, 0x85, 0xd8, 0x65, 0xbd,
  0x69, 0xf0, 0x72, 0x3d, 0xe8, 0xf8, 0xaf, 0x3e, 0x56, 0x41, 0x2e, 0x3d,
  0x32, 0xb2, 0x8a, 0x3e, 0x84, 0xac, 0x23, 0xbe, 0x09, 0x53, 0x33, 0x3e,
  0x1d, 0x83, 0x49, 0xbd, 0x7e, 0xeb, 0x89, 0xbe, 0x65, 0x30, 0x9a, 0x3d,
  0x29, 0xf5, 0x4c, 0x3d, 0xa6, 0x17, 0x9d, 0xbe, 0xab, 0x3d, 0xda, 0x3d,
  0xb6, 0xdb, 0x89, 0xbd, 0xca, 0x57, 0x80, 0x3d, 0xea, 0xbf, 0x35, 0x3d,
  0x87, 0x48, 0xc9, 0xbd, 0x58, 0x3c, 0xfc, 0x3d, 0x53, 0x4d, 0x23, 0x3d,
  0xe9, 0xb4, 0xa0, 0xbe, 0x62, 0xa5, 0xd1, 0x3d, 0x3d, 0xfa, 0xc6, 0x3e,
  0x67, 0x03, 0x73, 0xbb, 0x59, 0x73, 0x43, 0x3e, 0x5d, 0xde, 0x48, 0xbe,
  0x53, 0x4e, 0xd3, 0xbd, 0xbf, 0x76, 0x79, 0xbb, 0x8b, 0x2f, 0x17, 0xbe,
  0xc4, 0x20, 0x42, 0x3e, 0x89, 0x99, 0x61, 0xbe, 0x4e, 0x1d, 0x1a, 0xbd,
  0x3a, 0x81, 0x0d, 0xbe, 0x8e, 0x52, 0x44, 0xbe, 0x2b, 0xa8, 0x91, 0xbd,
  0xb9, 0xae, 0xae, 0x3d, 0x17, 0x70, 0x74, 0xbe, 0xb1, 0x67, 0x2b, 0x3d,
  0x89, 0x41, 0x21, 0x3c, 0xd3, 0xba, 0x9c, 0xbe, 0xd0, 0x02, 0x8c, 0xbd,
  0x0b, 0xf3, 0x81, 0xbe, 0x17, 0x69, 0x09, 0xbe, 0xbd, 0x6f, 0x1e, 0xbe,
  0x79, 0x24, 0x88, 0xbe, 0x04, 0x96, 0x00, 0xbe, 0x81, 0x1f, 0x7c, 0x3e,
  0xd1, 0x90, 0x9f, 0x3d, 0x9b, 0x38, 0xc9, 0x3d, 0x4c, 0x4c, 0xa5, 0xbe,
  0x17, 0xde, 0x8f, 0xbd, 0x71, 0xd2, 0x99, 0x3e, 0x5e, 0xfd, 0xee, 0xbe,
  0x93, 0xce, 0x5d, 0xbe, 0x40, 0xd4, 0xd8, 0xbd, 0xe6, 0xc4, 0x1e, 0x3d,
  0xd8, 0x2f, 0x5a, 0xbd, 0xe9, 0x63, 0x70, 0xbe, 0xb5, 0x29, 0x7d, 0xbe,
  0x56, 0x16, 0xad, 0xbe, 0x9e, 0x0d, 0x33, 0xbe, 0x20, 0xa6, 0x6f, 0xbd,
  0xe6, 0x6e, 0xb5, 0x3d, 0x37, 0xae, 0x8e, 0xbb, 0xc8, 0x64, 0xb8, 0x3d,
  0xc2, 0xcb, 0x73, 0xbe, 0x3e, 0xe4, 0x6b, 0x3c, 0x40, 0x1c, 0x10, 0xbc,
  0x97, 0x31, 0xb7, 0xbe, 0x6e, 0xf3, 0xf9, 0x3c, 0x62, 0x3e, 0x22, 0xbd,
  0x2e, 0xa2, 0x01, 0xbf, 0xfc, 0x69, 0xce, 0x3e, 0x17, 0x73, 0xd8, 0xbb,
  0x0e, 0x87, 0xea, 0xbd, 0xbf, 0xda, 0x14, 0x3d, 0x8b, 0xc6, 0x09, 0xbe,
  0xe6, 0xed, 0x93, 0x3d, 0x1c, 0x41, 0x55, 0xbd, 0x1e, 0x20, 0x09, 0xbf,
  0x3d, 0xc1, 0x66, 0x3d, 0x90, 0x75, 0x30, 0xbc, 0x97, 0x0a, 0x05, 0xbe,
  0x68, 0xaa, 0x93, 0x3d, 0xfb, 0x4e, 0x35, 0xbd, 0x08, 0x0d, 0x3b, 0x3d,
  0x10, 0x7a, 0x4f, 0xbd, 0xd9, 0x9b, 0x00, 0xbf, 0xac, 0xbb, 0xff, 0xbb,
  0x92, 0x6d, 0x9d, 0xbd, 0x7d, 0x7d, 0x73, 0x3d, 0x85, 0x4b, 0x5a, 0x3e,
  0x01, 0x3f, 0x81, 0xbc, 0x0c, 0xc5, 0xf2, 0x3d, 0xa2, 0x6e, 0xb6, 0xbd,
  0x11, 0x68, 0xc8, 0xbe, 0x1f, 0x76, 0x40, 0xbe, 0x2e, 0x88, 0x92, 0xbd,
  0xf8, 0x57, 0x02, 0x3e, 0xe4, 0xbd, 0x0d, 0x3e, 0x51, 0x47, 0x78, 0x3c,
  0xc6, 0xde, 0xff, 0xff, 0x10, 0x00, 0x00, 0x00, 0x08, 0x00, 0x00, 0x00,
  0x1c, 0x00, 0x00, 0x00, 0x38, 0x00, 0x00, 0x00, 0x04, 0x00, 0x00, 0x00,
  0x10, 0x00, 0x00, 0x00, 0x04, 0x00, 0x00, 0x00, 0x01, 0x00, 0x00, 0x00,
  0x08, 0x00, 0x00, 0x00, 0x1a, 0x00, 0x00, 0x00, 0x73, 0x65, 0x71, 0x75,
  0x65, 0x6e, 0x74, 0x69, 0x61, 0x6c, 0x2f, 0x63, 0x6f, 0x6e, 0x76, 0x32,
  0x64, 0x5f, 0x31, 0x2f, 0x43, 0x6f, 0x6e, 0x76, 0x32, 0x44, 0x00, 0x00,
  0xc0, 0xde, 0xff, 0xff, 0xb6, 0xdf, 0xff, 0xff, 0x04, 0x00, 0x00, 0x00,
  0x80, 0x01, 0x00, 0x00, 0x4c, 0x02, 0xd1, 0xbe, 0x37, 0x32, 0x53, 0xbd,
  0x58, 0xf4, 0xb0, 0x3c, 0xe6, 0xc6, 0x80, 0xbd, 0x58, 0x1b, 0xe6, 0xbb,
  0xcd, 0xe5, 0x52, 0x3d, 0x21, 0xa0, 0x45, 0x3e, 0xbe, 0x8f, 0x24, 0x3d,
  0xd3, 0x5e, 0x94, 0x3c, 0x4f, 0x0d, 0x73, 0x3e, 0x61, 0x29, 0x69, 0x3d,
  0x1c, 0x87, 0xfc, 0xbc, 0x9c, 0x2d, 0x26, 0x3c, 0x17, 0x87, 0x1c, 0xbd,
  0xd5, 0x9e, 0x32, 0xbe, 0x43, 0xcd, 0x27, 0xbd, 0xa5, 0xd5, 0xac, 0xbc,
  0x32, 0x9b, 0xa2, 0xbe, 0xe2, 0xdf, 0x91, 0x3d, 0x18, 0x05, 0x95, 0x3d,
  0x4f, 0x7b, 0xcb, 0x3e, 0x0b, 0xcd, 0xcd, 0x3c, 0xc9, 0x38, 0x90, 0x3d,
  0x82, 0x47, 0x0c, 0x3e, 0x25, 0x5b, 0x4e, 0xbb, 0x8e, 0xe0, 0x27, 0xbe,
  0x55, 0xfc, 0x94, 0xbe, 0xd5, 0x41, 0x8e, 0xbd, 0x6a, 0xc0, 0xc8, 0x3c,
  0x54, 0x65, 0x75, 0x3c, 0xb9, 0xce, 0x2c, 0xbe, 0x64, 0x25, 0x2f, 0x3e,
  0xd9, 0xfc, 0x79, 0xbe, 0xf5, 0x38, 0xcb, 0x3d, 0x25, 0x95, 0xd5, 0xbd,
  0xd8, 0xf1, 0xf8, 0xbd, 0x64, 0xe3, 0x02, 0x3e, 0xaf, 0x9e, 0xfc, 0x3e,
  0xb9, 0x69, 0x5a, 0xbe, 0x3c, 0xfc, 0x66, 0xbd, 0xb7, 0x16, 0xa3, 0xbc,
  0xf2, 0xdc, 0xcc, 0xbc, 0xac, 0x5d, 0x20, 0xbd, 0x04, 0x59, 0xb1, 0xbe,
  0x47, 0x22, 0x2b, 0x3d, 0x7c, 0x15, 0x5e, 0xbd, 0xc3, 0xae, 0x64, 0xbe,
  0xc1, 0x17, 0xef, 0x3d, 0x3b, 0x74, 0x4b, 0x3e, 0x19, 0xf8, 0xba, 0x3d,
  0x03, 0x57, 0xb0, 0xbd, 0xe4, 0x64, 0x82, 0x3d, 0xaa, 0x38, 0x73, 0xbe,
  0x83, 0x8a, 0xa4, 0x3e, 0x4b, 0x78, 0x0b, 0xbe, 0xde, 0x35, 0x35, 0x3e,
  0x67, 0x54, 0x5a, 0xbe, 0x6b, 0xb8, 0xa2, 0x3d, 0xc4, 0x7c, 0xa1, 0x3d,
  0x44, 0x7f, 0x4a, 0xbe, 0xaf, 0x54, 0x77, 0xbd, 0x42, 0xfe, 0xaf, 0xbd,
  0x36, 0x1a, 0x17, 0x3b, 0x3e, 0xeb, 0xa8, 0xbe, 0x14, 0x61, 0xbe, 0xbe,
  0x23, 0x47, 0x23, 0xbe, 0x60, 0x7e, 0x33, 0x3e, 0xca, 0xef, 0x3e, 0x3e,
  0xf2, 0xdd, 0xc4, 0xbc, 0xb0, 0xd7, 0xe3, 0x3e, 0x2b, 0x8f, 0x46, 0x3e,
  0x4b, 0x4c, 0x3a, 0x3e, 0xde, 0xf6, 0xc9, 0xbe, 0x13, 0x9e, 0x70, 0x3e,
  0x98, 0xa5, 0x28, 0x3e, 0xfc, 0x20, 0x3c, 0xbd, 0xde, 0xe1, 0x81, 0xbc,
  0x19, 0xbd, 0x00, 0x3e, 0x7d, 0xc5, 0xba, 0x3e, 0xdf, 0x75, 0x1e, 0xbe,
  0xc7, 0xb1, 0x3d, 0xbe, 0xbf, 0x0e, 0xbf, 0x3d, 0xdd, 0x8b, 0x37, 0xbd,
  0x37, 0x8e, 0x8b, 0xbd, 0x72, 0x8e, 0x6b, 0x3e, 0xd4, 0xc0, 0x77, 0xbe,
  0xcf, 0x8a, 0x14, 0x3e, 0xf3, 0xc4, 0x49, 0x3e, 0x7d, 0xdf, 0x61, 0x3e,
  0x09, 0xab, 0x25, 0xbe, 0xc5, 0xc6, 0x6f, 0x3e, 0x48, 0x53, 0x8b, 0xbd,
  0x40, 0xd7, 0xf7, 0x3d, 0x55, 0xb2, 0x92, 0xbd, 0x73, 0xd3, 0xc1, 0x3d,
  0x9b, 0x6c, 0x3a, 0xbe, 0x9e, 0xe0, 0xff, 0xff, 0x10, 0x00, 0x00, 0x00,
  0x07, 0x00, 0x00, 0x00, 0x1c, 0x00, 0x00, 0x00, 0x38, 0x00, 0x00, 0x00,
  0x04, 0x00, 0x00, 0x00, 0x08, 0x00, 0x00, 0x00, 0x04, 0x00, 0x00, 0x00,
  0x03, 0x00, 0x00, 0x00, 0x01, 0x00, 0x00, 0x00, 0x18, 0x00, 0x00, 0x00,
  0x73, 0x65, 0x71, 0x75, 0x65, 0x6e, 0x74, 0x69, 0x61, 0x6c, 0x2f, 0x63,
  0x6f, 0x6e, 0x76, 0x32, 0x64, 0x2f, 0x43, 0x6f, 0x6e, 0x76, 0x32, 0x44,
  0x00, 0x00, 0x00, 0x00, 0x98, 0xe0, 0xff, 0xff, 0x8e, 0xe1, 0xff, 0xff,
  0x04, 0x00, 0x00, 0x00, 0x00, 0x01, 0x00, 0x00, 0xf3, 0xc3, 0x1b, 0x3f,
  0xf3, 0x38, 0xa7, 0x3e, 0xa7, 0x2f, 0x3c, 0xbe, 0xe5, 0x20, 0xd3, 0x3d,
  0xee, 0xd4, 0x30, 0xbe, 0x0c, 0xed, 0x61, 0x3c, 0x58, 0xd3, 0x85, 0x3e,
  0x77, 0xc2, 0xf0, 0xbd, 0x98, 0x93, 0x56, 0x3e, 0x7d, 0x68, 0x78, 0xbe,
  0x10, 0x04, 0xc7, 0x3e, 0x7c, 0xbf, 0x45, 0x3e, 0xf9, 0x65, 0x74, 0x3d,
  0x31, 0xe5, 0x49, 0x3e, 0x49, 0x91, 0xa7, 0x3c, 0x24, 0x89, 0x12, 0x3f,
  0x50, 0x7d, 0x7f, 0xbe, 0x53, 0xb4, 0xc4, 0x3e, 0xda, 0x7a, 0x6a, 0xbe,
  0xae, 0x57, 0x10, 0x3e, 0x59, 0xed, 0x24, 0x3c, 0xaa, 0x92, 0x0e, 0x3d,
  0x3f, 0x1a, 0x7b, 0x3e, 0x33, 0xb2, 0x85, 0xbd, 0x1e, 0xc2, 0x6d, 0x3e,
  0x57, 0x74, 0x37, 0xbe, 0xf9, 0x63, 0xb6, 0x3e, 0x47, 0x99, 0x0f, 0x3e,
  0x65, 0x87, 0x11, 0x3d, 0x34, 0xe3, 0x89, 0x3e, 0xae, 0x2e, 0xa7, 0xbd,
  0x15, 0xae, 0x65, 0xbe, 0x4a, 0x81, 0x95, 0xbd, 0x30, 0xcd, 0xff, 0xbd,
  0x42, 0x9a, 0xae, 0xbe, 0xef, 0x12, 0xa7, 0xbe, 0x6f, 0x5d, 0xcf, 0x3c,
  0x89, 0xbb, 0x77, 0xbe, 0x53, 0x47, 0xb9, 0xbd, 0xc5, 0x9b, 0x33, 0xbd,
  0x36, 0x76, 0x4d, 0x3e, 0x55, 0xb5, 0xad, 0xbe, 0xf8, 0xc6, 0x8a, 0x3e,
  0x6b, 0xfd, 0xad, 0x3d, 0xc3, 0x55, 0x95, 0x3d, 0x57, 0x86, 0x80, 0x3d,
  0x1d, 0xd3, 0xce, 0xbe, 0xb2, 0x26, 0x5f, 0xbf, 0x1b, 0x19, 0x98, 0xbd,
  0x02, 0x8d, 0xa1, 0x3e, 0x7a, 0xca, 0x7e, 0xbe, 0xe2, 0xc0, 0x11, 0x3d,
  0x08, 0x21, 0xd7, 0xbb, 0x3f, 0xba, 0xc5, 0xbd, 0x0c, 0x35, 0x01, 0x3e,
  0x78, 0x4b, 0x02, 0xbe, 0x3f, 0x8a, 0x8c, 0x3e, 0xe9, 0xc0, 0xa2, 0xbe,
  0xfc, 0x7a, 0xab, 0x3e, 0x17, 0xba, 0xda, 0x3c, 0x00, 0xe4, 0x88, 0x3b,
  0x5f, 0xfd, 0xf5, 0xbe, 0x67, 0x03, 0x78, 0xbd, 0x9b, 0x31, 0xb2, 0xbe,
  0xf6, 0xe1, 0xff, 0xff, 0x10, 0x00, 0x00, 0x00, 0x06, 0x00, 0x00, 0x00,
  0x14, 0x00, 0x00, 0x00, 0x30, 0x00, 0x00, 0x00, 0x02, 0x00, 0x00, 0x00,
  0x04, 0x00, 0x00, 0x00, 0x10, 0x00, 0x00, 0x00, 0x19, 0x00, 0x00, 0x00,
  0x73, 0x65, 0x71, 0x75, 0x65, 0x6e, 0x74, 0x69, 0x61, 0x6c, 0x2f, 0x64,
  0x65, 0x6e, 0x73, 0x65, 0x5f, 0x31, 0x2f, 0x4d, 0x61, 0x74, 0x4d, 0x75,
  0x6c, 0x00, 0x00, 0x00, 0xe8, 0xe1, 0xff, 0xff, 0xde, 0xe2, 0xff, 0xff,
  0x04, 0x00, 0x00, 0x00, 0x00, 0x1c, 0x00, 0x00, 0x49, 0x63, 0xa0, 0xbd,
  0x9f, 0x1a, 0x0d, 0xbe, 0x8f, 0x5d, 0x20, 0xbd, 0x69, 0x05, 0x22, 0xbe,
  0x09, 0xc9, 0x40, 0xbd, 0xb0, 0xb6, 0x05, 0xbe, 0x39, 0x9b, 0x4b, 0xbd,
  0x95, 0x20, 0xc8, 0xbb, 0x33, 0xd9, 0xb6, 0x3e, 0x25, 0x04, 0xcc, 0xbe,
  0x31, 0x2e, 0xa8, 0xbe, 0x99, 0xa3, 0x64, 0xbe, 0xa2, 0x27, 0x42, 0xbd,
  0x9e, 0xd8, 0x74, 0xbe, 0x8e, 0x81, 0xdc, 0x3d, 0x8d, 0xf3, 0xca, 0xbc,
  0x91, 0x8f, 0x99, 0xbd, 0x16, 0x45, 0x76, 0xbe, 0xb9, 0xdb, 0x0d, 0xbe,
  0xb5, 0x09, 0x35, 0xbe, 0x06, 0x49, 0x34, 0xbd, 0x3a, 0xf0, 0x83, 0xbe,
  0x20, 0x45, 0x68, 0xbc, 0xb2, 0xec, 0x8d, 0xbd, 0xb0, 0x93, 0x6c, 0x3f,
  0x6a, 0x62, 0x8c, 0xbe, 0x6b, 0x6f, 0x2e, 0xbe, 0xa9, 0x72, 0x41, 0xbe,
  0xf4, 0xc4, 0x0a, 0xbd, 0x5a, 0x03, 0x29, 0xbe, 0xea, 0xe7, 0x51, 0x3f,
  0x45, 0xb9, 0x91, 0xbb, 0x17, 0x91, 0xfa, 0x3d, 0xc9, 0x32, 0x14, 0x3e,
  0x6f, 0xcd, 0x0f, 0x3e, 0x0a, 0x67, 0xdd, 0x3d, 0xef, 0x7c, 0x61, 0xbc,
  0x5d, 0x6c, 0x5a, 0xbe, 0x4f, 0xb1, 0x8b, 0xbd, 0x72, 0xb3, 0xe2, 0xbd,
  0xc8, 0x2c, 0x5b, 0x3f, 0x68, 0x95, 0xaa, 0xbe, 0xb5, 0x4c, 0x25, 0xbd,
  0xbe, 0x59, 0x7c, 0xbd, 0x44, 0x4e, 0x19, 0x3c, 0xa3, 0xed, 0xeb, 0x3c,
  0x5a, 0xb4, 0x57, 0x3f, 0xd1, 0x3f, 0x87, 0xbd, 0x98, 0xc9, 0x49, 0x3c,
  0xe7, 0x42, 0x16, 0xbe, 0xc0, 0xb7, 0xf5, 0xbd, 0x00, 0xcc, 0x07, 0xbd,
  0xc4, 0xad, 0x54, 0x3a, 0x3c, 0x96, 0xc4, 0xbd, 0x87, 0xb4, 0x45, 0xbe,
  0x02, 0xd5, 0xe4, 0xbd, 0x57, 0x7c, 0x2e, 0x3f, 0x87, 0xde, 0x83, 0xbe,
  0x46, 0x9f, 0x53, 0xbe, 0xbb, 0xa8, 0x4f, 0xbe, 0xf2, 0x37, 0x00, 0xbd,
  0x6b, 0xf4, 0x41, 0xbe, 0x93, 0x95, 0x46, 0x3f, 0xe9, 0x3c, 0x09, 0x3e,
  0xf8, 0x71, 0xfe, 0xbd, 0x84, 0x0e, 0x8e, 0xbd, 0xf0, 0xe5, 0x26, 0xbe,
  0xaa, 0x34, 0xc7, 0xbd, 0x54, 0x4f, 0xd5, 0x3d, 0x8d, 0x55, 0xf5, 0x3c,
  0xde, 0xb0, 0x60, 0xbe, 0xe1, 0x0d, 0xad, 0x3c, 0x41, 0x5b, 0x5b, 0x3f,
  0x9d, 0xce, 0x50, 0xbe, 0xcf, 0xa4, 0x33, 0x3d, 0x0c, 0xbe, 0x0d, 0xbe,
  0x2f, 0x53, 0x06, 0x3e, 0x7c, 0xc2, 0x64, 0xbe, 0xb5, 0x88, 0x48, 0x3f,
  0xd3, 0x7c, 0x62, 0xbe, 0xc8, 0x08, 0x40, 0xbe, 0x6e, 0x33, 0x06, 0xbe,
  0x2c, 0xf0, 0x53, 0xbd, 0x80, 0x2f, 0xf2, 0xbd, 0x2c, 0xcd, 0xf2, 0xbd,
  0xdf, 0xab, 0x3d, 0xbd, 0x12, 0xc5, 0xf7, 0x3d, 0x36, 0xe5, 0x8b, 0xbe,
  0x3a, 0x00, 0x2a, 0x3f, 0x78, 0xa4, 0x4e, 0xbe, 0xf4, 0x54, 0xed, 0xbd,
  0xad, 0x01, 0x0c, 0xbe, 0x00, 0xb0, 0x37, 0x3e, 0x57, 0xa0, 0x90, 0xbe,
  0x56, 0x4c, 0x17, 0x3f, 0x7f, 0x47, 0x13, 0xbc, 0xc2, 0x54, 0xf6, 0xbd,
  0x6c, 0x53, 0xb1, 0xbe, 0x45, 0x5a, 0xae, 0xbd, 0xe6, 0xf1, 0x9e, 0x3c,
  0xe8, 0x05, 0x6f, 0x3d, 0x3b, 0x1e, 0x90, 0xbd, 0x86, 0xb3, 0x98, 0x3d,
  0x14, 0x5e, 0x60, 0xbd, 0x66, 0xef, 0x80, 0x3f, 0xa0, 0x5d, 0xc3, 0xbe,
  0xf1, 0xe8, 0x15, 0xbe, 0x6e, 0x88, 0x39, 0xbe, 0x68, 0x18, 0x18, 0xbe,
  0x9d, 0x33, 0x4a, 0xbd, 0x4b, 0x4f, 0xee, 0xbd, 0xd3, 0x04, 0x1c, 0x3e,
  0x29, 0x71, 0x48, 0x3e, 0xd9, 0x6f, 0x04, 0xbe, 0xcd, 0x55, 0x88, 0x3e,
  0x41, 0x54, 0x07, 0xbe, 0xd8, 0x42, 0xea, 0x3c, 0x26, 0x2e, 0x67, 0xbe,
  0x9f, 0x33, 0xaa, 0x3e, 0x28, 0xba, 0xdb, 0x3d, 0xea, 0x9f, 0xe5, 0xbd,
  0x21, 0x3c, 0xa8, 0x3d, 0x97, 0x79, 0x3a, 0x3e, 0xac, 0x7c, 0xae, 0xbd,
  0x70, 0x62, 0x97, 0xbe, 0x4f, 0xc9, 0x7e, 0xbe, 0x3d, 0xff, 0xa1, 0x3d,
  0x36, 0xf3, 0xef, 0xbd, 0xb0, 0x60, 0xc2, 0x3b, 0xf6, 0x34, 0x9f, 0x3d,
  0x34, 0xa6, 0x8d, 0xbd, 0xce, 0x3d, 0xc1, 0x3e, 0x39, 0x80, 0x35, 0xbe,
  0xe4, 0xd4, 0x49, 0x3d, 0xdf, 0x5b, 0x83, 0x3d, 0xef, 0xd9, 0xca, 0xbe,
  0x53, 0x21, 0xa8, 0x3c, 0x76, 0x57, 0x9e, 0xbc, 0x8a, 0x78, 0xa1, 0xbd,
  0xdb, 0x25, 0xe8, 0x3c, 0x27, 0x8e, 0xcb, 0xbd, 0x46, 0xcb, 0xbd, 0x3d,
  0xc2, 0xba, 0xa7, 0xbd, 0x88, 0xb1, 0x54, 0xbe, 0x45, 0x3b, 0x5c, 0xbe,
  0xce, 0xde, 0xd5, 0xbe, 0xbc, 0x35, 0x65, 0xbe, 0xda, 0x33, 0x12, 0x3e,
  0x22, 0x56, 0x1a, 0xbd, 0xb2, 0x73, 0x67, 0xbd, 0x88, 0xc7, 0x13, 0xbe,
  0xe1, 0x6f, 0x1c, 0x3e, 0x91, 0x85, 0x98, 0x3d, 0x36, 0x16, 0x05, 0xbd,
  0x17, 0x68, 0x2e, 0xbf, 0xa0, 0x4c, 0xc8, 0x3d, 0x43, 0xfe, 0xf1, 0xbd,
  0xe6, 0x1f, 0xc3, 0x3c, 0x9c, 0x5d, 0xde, 0x3c, 0x98, 0x1f, 0x30, 0xbc,
  0xa3, 0xd2, 0x2f, 0xbe, 0x8f, 0x5f, 0x04, 0xbf, 0xdf, 0x10, 0x9a, 0x3c,
  0x60, 0x3b, 0xd5, 0xbd, 0x07, 0xf1, 0x74, 0xbe, 0x46, 0x50, 0x79, 0xbe,
  0xa1, 0x2a, 0x98, 0xbd, 0xcc, 0xbb, 0x92, 0xbc, 0x78, 0x90, 0x76, 0x3c,
  0xe8, 0x43, 0x43, 0xbd, 0xb1, 0xf1, 0xf2, 0xbe, 0x69, 0xdc, 0x97, 0x3c,
  0x89, 0x06, 0x03, 0xbe, 0xbe, 0xca, 0x01, 0x3e, 0xa9, 0x2d, 0x2b, 0x3b,
  0xc5, 0x24, 0x15, 0xbd, 0x61, 0xcc, 0x7c, 0x3e, 0xa8, 0x77, 0x0c, 0xbe,
  0xdf, 0x43, 0x9c, 0x3e, 0x36, 0xf2, 0x0e, 0xbe, 0x01, 0x81, 0xe7, 0xbd,
  0x15, 0xfc, 0xd7, 0xbd, 0x5a, 0x6b, 0xe0, 0xbd, 0xff, 0xa0, 0xf6, 0xbd,
  0x60, 0xb5, 0x63, 0x3c, 0xfe, 0x34, 0xb7, 0xba, 0x43, 0x46, 0x8c, 0xbd,
  0x04, 0x18, 0x93, 0xbd, 0x18, 0xa4, 0x8f, 0xbd, 0x38, 0x3c, 0x7f, 0xbc,
  0xb0, 0xf2, 0xce, 0xbc, 0xb8, 0xaf, 0x12, 0xbe, 0x56, 0xf9, 0xab, 0x3e,
  0x7f, 0x57, 0x68, 0xbd, 0xc5, 0x10, 0x9b, 0x3e, 0xf3, 0xcb, 0x71, 0xbc,
  0xd2, 0x3c, 0x9d, 0x3a, 0x0e, 0xb3, 0x0e, 0xbe, 0xee, 0x9d, 0xa9, 0x3d,
  0xaf, 0xbe, 0x1a, 0xbe, 0x49, 0xe3, 0x35, 0x3c, 0x39, 0xee, 0x38, 0xbd,
  0x2b, 0x02, 0xad, 0x3c, 0x97, 0x46, 0x8e, 0xbd, 0x28, 0x8b, 0xa3, 0xbd,
  0x06, 0xa8, 0xcb, 0xbc, 0xf2, 0x05, 0x10, 0x3e, 0x25, 0xe2, 0xaf, 0xbe,
  0xe0, 0xf6, 0xca, 0x3d, 0x55, 0x73, 0x51, 0x3d, 0x57, 0xa1, 0xac, 0x3d,
  0x68, 0xe0, 0xd5, 0xbd, 0x61, 0x69, 0x6c, 0x3e, 0x92, 0x76, 0x10, 0xbe,
  0x4f, 0x6a, 0x69, 0x3d, 0x0c, 0x66, 0x87, 0x3d, 0x03, 0x3b, 0xc3, 0xbd,
  0x77, 0x2e, 0x96, 0x3d, 0x66, 0xd7, 0xc2, 0x3c, 0x8a, 0xb9, 0x84, 0xbd,
  0xb7, 0x3a, 0x07, 0xbd, 0x3c, 0xfe, 0x5e, 0x3d, 0x50, 0x50, 0xb1, 0x3e,
  0x8b, 0x49, 0x4c, 0xbe, 0xe3, 0x6f, 0x79, 0xbe, 0xdd, 0xa5, 0x32, 0x3d,
  0xf6, 0x45, 0x9f, 0xbe, 0xa4, 0xe5, 0xcb, 0xbd, 0x97, 0xa3, 0xe1, 0xbe,
  0x17, 0x2a, 0x39, 0x3e, 0xe4, 0x98, 0x80, 0xbd, 0x2e, 0x2d, 0xbc, 0x3c,
  0xaa, 0xc8, 0x95, 0xbe, 0x5e, 0xd5, 0x75, 0xbd, 0xcd, 0xca, 0x13, 0xbd,
  0x18, 0x1b, 0x00, 0xbe, 0x15, 0xe0, 0x70, 0x3e, 0x03, 0x0b, 0x50, 0x3e,
  0xf6, 0x0e, 0x2a, 0xbe, 0x6e, 0x3c, 0x29, 0x3e, 0xbc, 0x9d, 0xcb, 0xbd,
  0x71, 0x7f, 0x44, 0x3e, 0x27, 0xfa, 0x99, 0x3d, 0xf8, 0xdb, 0x7c, 0x3e,
  0xec, 0x28, 0x95, 0xbe, 0x60, 0xd3, 0x94, 0x3d, 0xcf, 0x85, 0x16, 0xbd,
  0x31, 0x42, 0x76, 0x3d, 0x84, 0x10, 0x67, 0xbe, 0x5b, 0x84, 0xa3, 0xbd,
  0xb3, 0x97, 0xe1, 0xbb, 0xff, 0x53, 0x6e, 0xbe, 0xac, 0x5d, 0x13, 0x3e,
  0x7d, 0x4b, 0x3e, 0x3d, 0x33, 0x8d, 0xe0, 0x3c, 0xca, 0x4c, 0x5a, 0x3e,
  0x4b, 0x58, 0x25, 0x3d, 0xde, 0x90, 0x8e, 0x3c, 0x50, 0x8a, 0xa5, 0x3d,
  0xab, 0xcb, 0xda, 0x3e, 0x65, 0xa4, 0x89, 0xbe, 0x10, 0x49, 0x12, 0x3e,
  0x87, 0x27, 0xda, 0x3c, 0xc9, 0xb5, 0xc3, 0xbe, 0xbe, 0xc0, 0x16, 0xbe,
  0x96, 0x7e, 0x1e, 0xbe, 0x29, 0x53, 0xe0, 0x3b, 0x33, 0x34, 0x66, 0xbe,
  0xde, 0x90, 0x00, 0x3e, 0x27, 0xc8, 0x12, 0xbe, 0xe0, 0x53, 0xe6, 0x3c,
  0x91, 0x8b, 0xd7, 0xbe, 0xeb, 0x4b, 0x92, 0x3e, 0xa0, 0x7c, 0x17, 0x3e,
  0x08, 0x92, 0xf4, 0x3b, 0x5f, 0xe2, 0x58, 0x3e, 0x8f, 0x32, 0xfc, 0xbd,
  0xb7, 0x6e, 0xb0, 0x3e, 0xa5, 0x5c, 0x6c, 0x3d, 0x19, 0x7f, 0xa8, 0xbd,
  0x8a, 0x7c, 0x4d, 0x3a, 0x07, 0x8b, 0xc6, 0xbd, 0x0b, 0xdd, 0x92, 0xbb,
  0x9f, 0xc3, 0x3e, 0xbd, 0xce, 0x93, 0x90, 0x3d, 0xed, 0xf3, 0x8a, 0x3d,
  0x47, 0x02, 0x0f, 0x3d, 0x92, 0x0b, 0x97, 0xbe, 0xdb, 0xe4, 0xbd, 0x3d,
  0x54, 0xfa, 0x97, 0x3e, 0x95, 0x16, 0x68, 0xbd, 0x18, 0x9a, 0x05, 0xbd,
  0x95, 0x93, 0x18, 0x3e, 0xa4, 0x27, 0x7f, 0x3d, 0x14, 0xab, 0x9b, 0xbe,
  0xe1, 0xd5, 0x0a, 0xbe, 0xfe, 0x6e, 0x8b, 0xbd, 0xfd, 0x7b, 0x11, 0xbd,
  0x9f, 0x97, 0xb0, 0x3c, 0xdd, 0x10, 0x23, 0x3d, 0x17, 0x72, 0x24, 0x3e,
  0xd2, 0x4b, 0x2b, 0xbd, 0xd8, 0x38, 0xdc, 0xbd, 0x01, 0x0b, 0x71, 0x3e,
  0x0e, 0x5f, 0x4f, 0x3b, 0xa2, 0x8d, 0x22, 0xbc, 0xea, 0x50, 0x1a, 0xbe,
  0x6b, 0x07, 0xe8, 0x3e, 0x7f, 0x94, 0x23, 0x3e, 0x72, 0x97, 0xbb, 0xbe,
  0x5a, 0xc7, 0x86, 0xbe, 0x71, 0xe2, 0x6b, 0xbe, 0x13, 0xe9, 0x0b, 0x3e,
  0x5b, 0x42, 0x42, 0xbe, 0x7d, 0xd6, 0x86, 0xbd, 0x00, 0x1a, 0xb2, 0x3d,
  0xe1, 0xa1, 0x80, 0xbd, 0xd4, 0x69, 0x54, 0xbe, 0x10, 0xab, 0x2f, 0x3d,
  0x15, 0xfe, 0x82, 0xbe, 0xc9, 0x95, 0x1f, 0xbe, 0x81, 0x45, 0x03, 0xbd,
  0x54, 0xe3, 0x1a, 0xbe, 0x01, 0x31, 0x20, 0x3e, 0x2f, 0x9b, 0x1f, 0x3e,
  0xf7, 0xfc, 0xa2, 0x3d, 0x2b, 0x87, 0xfd, 0x3c, 0xc8, 0x7e, 0x3c, 0x3e,
  0x0a, 0x02, 0x04, 0x3e, 0x1a, 0x3f, 0x0e, 0xbd, 0x95, 0x17, 0x93, 0xbd,
  0x31, 0xab, 0x37, 0x3e, 0x8e, 0x08, 0x6b, 0xbe, 0x87, 0x76, 0x63, 0xbc,
  0x9e, 0xe5, 0x8b, 0x3e, 0xe0, 0x6f, 0x01, 0xbe, 0xbb, 0x01, 0x4f, 0x3e,
  0xf1, 0xd2, 0x89, 0x3d, 0x82, 0xec, 0x51, 0x3e, 0x78, 0x0a, 0xd6, 0xbd,
  0xa7, 0x86, 0x34, 0xbd, 0xc7, 0x79, 0x91, 0xbd, 0xb7, 0xb8, 0x9d, 0x3e,
  0x73, 0xda, 0x7e, 0xbc, 0x66, 0x3f, 0xdc, 0xbe, 0x5b, 0x51, 0x9e, 0x3c,
  0xe6, 0x7b, 0xda, 0x3d, 0xbf, 0xd9, 0x06, 0xbe, 0xdf, 0xca, 0x59, 0xbd,
  0x57, 0x64, 0xd7, 0xbc, 0xa0, 0xbf, 0xa8, 0xbe, 0x99, 0xf4, 0x11, 0xbe,
  0x61, 0x9b, 0xe0, 0xbc, 0xe5, 0xdc, 0x9f, 0x3d, 0x58, 0xf3, 0x23, 0x3e,
  0xd4, 0x65, 0xf4, 0xbb, 0xd5, 0x7c, 0x1a, 0xbc, 0xa0, 0xd2, 0x31, 0x3e,
  0xe1, 0x5c, 0x62, 0xbe, 0xdb, 0xfd, 0x58, 0xbe, 0x3a, 0xf7, 0x92, 0x3e,
  0x26, 0xd4, 0xcf, 0xbd, 0x9e, 0x6a, 0x40, 0xbc, 0x5d, 0x23, 0x85, 0xbb,
  0x85, 0x37, 0xc6, 0xbd, 0xc0, 0xfa, 0xc4, 0x3d, 0x59, 0xb8, 0xa1, 0x3e,
  0x46, 0xc7, 0x05, 0x3c, 0x5c, 0xe6, 0xc6, 0xbd, 0xfa, 0xe2, 0x2f, 0x3e,
  0x52, 0xa0, 0x6d, 0xbe, 0x19, 0xe8, 0x2f, 0xbe, 0xe6, 0xa3, 0x12, 0xbc,
  0xf2, 0xa8, 0x47, 0xbd, 0x02, 0xd7, 0xa0, 0xbe, 0x66, 0x48, 0xb4, 0x3b,
  0x71, 0xaf, 0x88, 0x3e, 0xdd, 0xec, 0x1a, 0xbe, 0x0d, 0x86, 0xe3, 0xbe,
  0xd4, 0xde, 0xa4, 0x3d, 0xbc, 0xdf, 0xa8, 0xbd, 0x44, 0x5e, 0xe0, 0x3c,
  0xf2, 0xa0, 0xc7, 0xbd, 0xcf, 0x20, 0x92, 0xbd, 0x13, 0xcf, 0x87, 0xbe,
  0x24, 0x78, 0x3e, 0xbe, 0x42, 0x91, 0x4a, 0xbe, 0x4a, 0x59, 0x28, 0xbe,
  0x61, 0x3c, 0x5e, 0x3d, 0x93, 0xd0, 0x5a, 0xbe, 0x41, 0xb7, 0xd3, 0xbc,
  0x8d, 0x56, 0x22, 0xbc, 0x2d, 0xc6, 0xcf, 0x3e, 0xca, 0x29, 0xfa, 0xbd,
  0xf4, 0xab, 0xbd, 0xbe, 0xbf, 0xe9, 0xb2, 0x3c, 0xfa, 0x88, 0x6e, 0xbe,
  0x3e, 0xe4, 0xa2, 0xbc, 0x02, 0xe9, 0x4e, 0x3e, 0xd6, 0xf5, 0x2b, 0x3c,
  0xc0, 0x0e, 0x35, 0xbd, 0x16, 0xd2, 0x8c, 0xbe, 0xc3, 0x9b, 0x90, 0xbe,
  0xc8, 0xcb, 0xd0, 0xbc, 0xff, 0x1e, 0xc1, 0xbd, 0x59, 0xc3, 0xd5, 0x3c,
  0x58, 0x2f, 0x04, 0xbe, 0xf0, 0x56, 0xb7, 0x3c, 0x96, 0x14, 0x0b, 0x3f,
  0x79, 0xd0, 0x94, 0xbd, 0xde, 0xad, 0x04, 0xbe, 0x18, 0x95, 0xb6, 0xbd,
  0x94, 0x23, 0x88, 0xbe, 0x84, 0x7d, 0xe0, 0x3c, 0x94, 0xdc, 0xdc, 0x3e,
  0x5b, 0xd3, 0x22, 0x3e, 0xc4, 0xba, 0x30, 0xbe, 0x70, 0x10, 0xe6, 0xbb,
  0x28, 0x8f, 0xca, 0xbd, 0x8b, 0x5e, 0x39, 0xbe, 0x86, 0x7d, 0xc9, 0x3d,
  0x6f, 0x9c, 0x13, 0x3e, 0xec, 0x02, 0xce, 0xbd, 0x42, 0x87, 0x96, 0xbd,
  0xe1, 0xe4, 0x09, 0x3f, 0x38, 0xf2, 0xdf, 0xbd, 0xbb, 0x51, 0x30, 0xbe,
  0x88, 0x3f, 0x5c, 0xbd, 0xd6, 0xf0, 0x16, 0x3d, 0x96, 0x2c, 0x61, 0xbc,
  0x6d, 0x6d, 0x83, 0x3e, 0x9d, 0x2e, 0x6b, 0xbc, 0x82, 0xe4, 0x54, 0xbb,
  0x97, 0xdf, 0x57, 0xbe, 0xe3, 0xb9, 0xa2, 0xbd, 0xd9, 0xae, 0xb2, 0xbc,
  0x9d, 0xbc, 0xd1, 0xbc, 0x81, 0xce, 0x94, 0xbd, 0x98, 0x91, 0x9e, 0xbd,
  0x6b, 0x3b, 0x91, 0x3d, 0x23, 0x60, 0x7d, 0x3e, 0x30, 0x62, 0xec, 0xbd,
  0xa1, 0x02, 0xec, 0xbc, 0x00, 0x7d, 0x74, 0xbd, 0x2b, 0x06, 0x93, 0x3d,
  0x7e, 0x28, 0x02, 0xba, 0x52, 0x4e, 0xb7, 0x3d, 0x66, 0x04, 0xfc, 0xb9,
  0xc0, 0x4f, 0xc1, 0x3d, 0x37, 0x5b, 0xf2, 0xbd, 0x65, 0x33, 0x57, 0x3e,
  0x47, 0x1d, 0x05, 0x3d, 0x4e, 0xbf, 0x28, 0x3e, 0x23, 0x51, 0xbb, 0xbd,
  0x01, 0xfa, 0x0e, 0x3e, 0x61, 0x3f, 0x27, 0xbd, 0x23, 0xaa, 0x7f, 0x3e,
  0x65, 0xcd, 0x85, 0x3d, 0x04, 0x64, 0xbc, 0x3c, 0xc0, 0xa1, 0x50, 0xbc,
  0xee, 0x21, 0x51, 0xbe, 0x56, 0xc1, 0x10, 0xbe, 0xdf, 0x55, 0x5c, 0x3e,
  0x83, 0x74, 0x4b, 0xbd, 0xcb, 0x72, 0xa2, 0x3c, 0x02, 0x24, 0x9e, 0xbb,
  0x05, 0x57, 0xbf, 0xbd, 0xd0, 0x9d, 0xac, 0x3e, 0x6b, 0x53, 0x23, 0x3e,
  0x28, 0x7f, 0x16, 0xbd, 0x24, 0x28, 0x88, 0x3e, 0x7d, 0x30, 0x1f, 0x3e,
  0x99, 0x78, 0x88, 0xbe, 0xa3, 0x1d, 0xcd, 0x3c, 0x08, 0x19, 0x20, 0x3c,
  0x1a, 0xc5, 0xe6, 0x3c, 0x21, 0x41, 0xf7, 0xbd, 0xb5, 0x1d, 0x1b, 0x3d,
  0x47, 0xbd, 0x9e, 0xbe, 0x0f, 0x0d, 0x14, 0xbd, 0xc1, 0x38, 0xe0, 0xbd,
  0x1b, 0x82, 0x02, 0xbe, 0x54, 0x4b, 0x9d, 0xbc, 0xe3, 0xf6, 0xf9, 0x3d,
  0x19, 0xe0, 0xf9, 0x3d, 0xfb, 0x6c, 0xee, 0xbd, 0x47, 0x36, 0xe2, 0x3e,
  0x9a, 0x8c, 0x92, 0x3e, 0x28, 0x72, 0x73, 0xbe, 0x61, 0xf9, 0x6f, 0xbb,
  0x00, 0x50, 0x9f, 0xbd, 0xbc, 0xe3, 0xb1, 0x3d, 0x89, 0x69, 0x1e, 0x3d,
  0x85, 0xa8, 0x03, 0xbd, 0x9a, 0xb7, 0x14, 0xbe, 0x89, 0x9b, 0xb5, 0x3d,
  0xdd, 0x63, 0xcd, 0xbd, 0xf1, 0xd4, 0x67, 0xbd, 0x00, 0x2c, 0xcd, 0x3d,
  0x36, 0x39, 0x88, 0x3e, 0xe2, 0x9e, 0x5e, 0x3d, 0x11, 0xb3, 0x3e, 0xbe,
  0x99, 0xd6, 0x12, 0x3f, 0x21, 0x22, 0x95, 0x3e, 0xb6, 0x9b, 0x91, 0xbe,
  0x7b, 0xc6, 0xdb, 0xbb, 0x25, 0x25, 0xbc, 0xbd, 0x40, 0x83, 0x9b, 0xbb,
  0xe4, 0x38, 0xc3, 0x3d, 0x22, 0x5d, 0xe8, 0x3b, 0x07, 0x0b, 0x21, 0x3d,
  0xc9, 0xa0, 0xd7, 0x3d, 0xab, 0x3c, 0x20, 0xbe, 0x67, 0x53, 0x98, 0xbd,
  0x70, 0x69, 0x00, 0xbe, 0x29, 0x9b, 0x81, 0x3e, 0x8c, 0xe3, 0x45, 0x3d,
  0x8a, 0x5c, 0x85, 0xbd, 0x12, 0xb1, 0x11, 0x3f, 0xfc, 0x32, 0x9d, 0x3e,
  0x98, 0x6d, 0xe8, 0xbe, 0x1c, 0x5d, 0xfa, 0xba, 0xf3, 0x18, 0xf0, 0xbd,
  0x22, 0xad, 0x9d, 0xbc, 0xbc, 0x89, 0x53, 0xbb, 0x86, 0x0b, 0xef, 0xbd,
  0x18, 0xd9, 0x18, 0xbd, 0x4a, 0x8e, 0xd7, 0x3d, 0xd6, 0x59, 0xa4, 0xbe,
  0xfc, 0x93, 0xe1, 0xbd, 0xe8, 0xef, 0xed, 0xbd, 0xed, 0xa1, 0x3f, 0x3e,
  0x25, 0x3c, 0x5c, 0x3c, 0xaf, 0xa5, 0x1c, 0xbe, 0xea, 0x87, 0xd5, 0x3e,
  0x97, 0x11, 0x31, 0x3e, 0xd3, 0xa6, 0x8f, 0xbe, 0x93, 0xfa, 0xb2, 0x3c,
  0x3a, 0x51, 0xbe, 0xbd, 0x76, 0x9d, 0x8a, 0xbd, 0x46, 0x20, 0x51, 0xbd,
  0xae, 0xe7, 0x01, 0xbe, 0x05, 0x72, 0x50, 0xbe, 0x37, 0xbe, 0x08, 0x3e,
  0xfd, 0x88, 0x96, 0xbd, 0x3b, 0x7a, 0xe9, 0xbd, 0xe9, 0x4f, 0x1c, 0xbd,
  0x6b, 0x11, 0xb8, 0xbd, 0x8e, 0xa1, 0xf2, 0xbc, 0x10, 0x3c, 0xee, 0x3b,
  0x4e, 0x37, 0x2a, 0x3e, 0x3f, 0xd0, 0xcc, 0x3d, 0xf4, 0x47, 0x26, 0xbe,
  0x25, 0x72, 0x5b, 0xbc, 0xe0, 0xa0, 0xda, 0x3b, 0x7e, 0x95, 0x2e, 0xbd,
  0x9e, 0x30, 0x11, 0xbe, 0x66, 0xc4, 0xbc, 0xbd, 0xb9, 0x2f, 0x21, 0xbd,
  0x47, 0x33, 0xa5, 0x3c, 0x61, 0x11, 0x81, 0x3b, 0xb5, 0x7e, 0x6d, 0xbd,
  0xa5, 0xcf, 0x44, 0xbd, 0x35, 0xd9, 0xe6, 0x3a, 0xe5, 0x55, 0x14, 0xbf,
  0xd6, 0x19, 0x9f, 0xbe, 0x09, 0x38, 0x02, 0x3f, 0xf0, 0x2d, 0xc6, 0x3c,
  0x3a, 0xe5, 0x38, 0xbe, 0x72, 0x0e, 0x89, 0xbd, 0xf4, 0x1e, 0xb9, 0xbc,
  0xdd, 0x8d, 0x71, 0x3d, 0xba, 0x2f, 0x1c, 0xbe, 0x7f, 0x8b, 0xa4, 0xbe,
  0xf0, 0x34, 0x46, 0xbe, 0xb0, 0x45, 0x63, 0xbe, 0x52, 0x88, 0x0b, 0xbe,
  0x94, 0x69, 0xaa, 0xbd, 0x1d, 0x24, 0x2a, 0xbe, 0xc7, 0x1d, 0x83, 0xbe,
  0x32, 0x0d, 0x34, 0xbf, 0x22, 0xc3, 0x84, 0xbe, 0xef, 0x29, 0x54, 0xbe,
  0xfa, 0x58, 0x46, 0xbe, 0xe1, 0x15, 0x56, 0xbe, 0x62, 0x63, 0xb5, 0xbc,
  0xa1, 0xd8, 0x93, 0xbe, 0x65, 0x4d, 0x8e, 0xbc, 0x74, 0x56, 0xe2, 0x3d,
  0xc9, 0x6f, 0x01, 0x3d, 0xda, 0xd5, 0x6f, 0x3a, 0x34, 0xd1, 0xb9, 0xbe,
  0x1b, 0x8f, 0x30, 0xbd, 0xf9, 0xf5, 0x8d, 0xbd, 0xd2, 0x10, 0xbc, 0xbd,
  0x99, 0xdf, 0x41, 0xbe, 0x0e, 0x72, 0xd9, 0xbe, 0xba, 0x90, 0x27, 0xbe,
  0x12, 0xc9, 0x48, 0x3d, 0xa1, 0x93, 0x47, 0x3d, 0x2c, 0x71, 0x3a, 0xbe,
  0x5e, 0x13, 0xbb, 0xbd, 0x7b, 0x45, 0xd1, 0xbe, 0x85, 0xd0, 0x42, 0x3c,
  0x75, 0x72, 0x28, 0xbe, 0x06, 0x23, 0x91, 0xbe, 0x70, 0x68, 0x3f, 0xbe,
  0x43, 0x27, 0xae, 0xbe, 0xbe, 0xdc, 0x8c, 0xbd, 0x64, 0x67, 0x4a, 0x3e,
  0xf6, 0xa3, 0x10, 0x3e, 0xc5, 0xb7, 0x63, 0xbe, 0x06, 0x91, 0xf8, 0xbe,
  0xa3, 0xc9, 0x3b, 0x3e, 0xa2, 0xf3, 0x36, 0xbe, 0x15, 0xae, 0x9e, 0xbe,
  0xed, 0x5f, 0x35, 0xbe, 0x56, 0xd8, 0xeb, 0xbd, 0x66, 0x29, 0xb8, 0xbe,
  0xfa, 0xd1, 0xa7, 0x3c, 0x03, 0x95, 0x57, 0x3e, 0x78, 0x95, 0x17, 0xbe,
  0xab, 0x85, 0xe2, 0xbc, 0xf0, 0xbd, 0x9f, 0xbe, 0x31, 0x24, 0x27, 0x3e,
  0x3c, 0x7f, 0x8b, 0x3d, 0xda, 0xc5, 0x70, 0x3e, 0x26, 0x84, 0x8a, 0x3b,
  0x1b, 0xa1, 0x10, 0xbd, 0xa4, 0xb4, 0xa0, 0x3d, 0x9f, 0x0c, 0x57, 0x3d,
  0x18, 0x9b, 0x88, 0xbd, 0xa3, 0xc0, 0x85, 0xbe, 0x16, 0xe1, 0x39, 0xbd,
  0x55, 0x2b, 0xf3, 0xbd, 0x30, 0x93, 0xa4, 0xbc, 0xf6, 0x92, 0x08, 0x3e,
  0x07, 0xb1, 0x8e, 0x3d, 0xe9, 0x08, 0x06, 0x3e, 0x55, 0xe0, 0xde, 0xbe,
  0x86, 0x22, 0x24, 0x3e, 0x98, 0x3e, 0x24, 0x3e, 0x02, 0x34, 0x39, 0x3e,
  0x81, 0xb0, 0x3c, 0xbc, 0xcd, 0x06, 0x4b, 0x3e, 0x15, 0xf2, 0x35, 0xbc,
  0xf6, 0x83, 0xc8, 0x3d, 0x9c, 0x92, 0x36, 0xbd, 0x02, 0x17, 0x34, 0x3d,
  0x43, 0x2d, 0x6c, 0xbd, 0x78, 0xa0, 0x8b, 0x3d, 0x88, 0x04, 0x43, 0xbd,
  0x51, 0x2c, 0x85, 0x3d, 0x09, 0xfe, 0x4a, 0x3d, 0x4b, 0x13, 0xee, 0xbd,
  0xdf, 0x18, 0xbb, 0xbd, 0xb0, 0xbe, 0x58, 0x3e, 0x4f, 0x45, 0xb4, 0x3d,
  0xfb, 0x33, 0x64, 0x3d, 0x64, 0x44, 0x1b, 0x3e, 0x79, 0x96, 0xc7, 0x3d,
  0x54, 0xdf, 0x4c, 0x3c, 0x86, 0x81, 0xab, 0xbc, 0x82, 0x54, 0x86, 0x3d,
  0x01, 0xcd, 0x7a, 0x3c, 0x60, 0x32, 0x5e, 0x3d, 0x72, 0x4c, 0xd9, 0x3d,
  0x65, 0x09, 0x6b, 0xbe, 0x51, 0x6d, 0x73, 0x3d, 0x40, 0xff, 0x26, 0x3d,
  0xd9, 0xff, 0x26, 0xbe, 0x75, 0x3d, 0x13, 0xbe, 0xe0, 0x40, 0x24, 0x3c,
  0x5a, 0x2d, 0xbb, 0x3d, 0xc9, 0x8a, 0xff, 0xbb, 0x95, 0x43, 0x17, 0xbe,
  0x4e, 0x5e, 0x93, 0xbe, 0x6e, 0x7d, 0x16, 0x3e, 0x34, 0x0b, 0x54, 0xbc,
  0x4a, 0x03, 0x1c, 0xbd, 0x5b, 0x4b, 0xbb, 0xbe, 0xcd, 0x4d, 0x84, 0x3d,
  0x76, 0xc8, 0x86, 0x3d, 0xf9, 0x13, 0x7e, 0xbe, 0x3c, 0xff, 0xcf, 0x3d,
  0x94, 0xe4, 0xf3, 0x3d, 0x7e, 0x13, 0x84, 0xbe, 0x9f, 0x6e, 0x93, 0x3d,
  0xde, 0xc7, 0xbe, 0xbc, 0xbe, 0xa2, 0x0a, 0x3e, 0x08, 0x47, 0xdb, 0x3c,
  0xfb, 0xad, 0xd0, 0xbd, 0xec, 0x49, 0x57, 0xbe, 0x5d, 0x12, 0x44, 0x3d,
  0xe1, 0x32, 0x9d, 0x3c, 0x84, 0x91, 0x8e, 0xbc, 0xe8, 0x41, 0x4d, 0xbe,
  0xc7, 0x26, 0x2c, 0xbc, 0xa3, 0x4f, 0xfd, 0x3c, 0x2b, 0xdf, 0xd4, 0xbd,
  0xae, 0xa9, 0x55, 0x3d, 0xc3, 0x52, 0xd9, 0x3d, 0x65, 0x5b, 0x99, 0xbd,
  0x4a, 0x49, 0x75, 0x3e, 0xed, 0x40, 0xd0, 0x3d, 0x93, 0xd1, 0xec, 0x3d,
  0x33, 0x3a, 0xfb, 0xbd, 0xcc, 0x7d, 0x01, 0x3e, 0x40, 0xdf, 0x11, 0xbe,
  0xe5, 0xb8, 0xa7, 0x3d, 0xa8, 0x4c, 0x49, 0xbd, 0x4f, 0xd7, 0xab, 0xbe,
  0x1f, 0x46, 0x8c, 0x3d, 0x49, 0x59, 0xc6, 0xbd, 0x15, 0x9d, 0xb2, 0xbd,
  0x50, 0x1e, 0x2d, 0xbc, 0x91, 0x1a, 0x6c, 0x3e, 0x78, 0x2a, 0x32, 0xbc,
  0xec, 0x68, 0xa3, 0xbc, 0x40, 0x2b, 0x32, 0xbe, 0xc5, 0xa5, 0x10, 0xbd,
  0x83, 0xba, 0xe7, 0x3c, 0xd6, 0xe0, 0xb0, 0xbd, 0x26, 0xdf, 0x00, 0x3b,
  0xee, 0xaa, 0x4d, 0xbe, 0x27, 0xef, 0xbb, 0x3d, 0xb8, 0x02, 0x5e, 0xbe,
  0x07, 0x3c, 0x78, 0xbe, 0xe2, 0xa1, 0x3a, 0x3e, 0x78, 0xd4, 0xc0, 0xbd,
  0x8b, 0xe3, 0xb3, 0xbd, 0xa4, 0x8b, 0xb4, 0x3b, 0xcd, 0xf5, 0x98, 0xbb,
  0x47, 0xd9, 0x41, 0xbd, 0x0e, 0xec, 0xcb, 0x3d, 0xae, 0x67, 0xcd, 0xbd,
  0x20, 0x99, 0xdc, 0x3d, 0x5f, 0xec, 0xc4, 0xbc, 0xa4, 0xba, 0xf9, 0xbd,
  0x0f, 0xc2, 0x67, 0x3e, 0x7e, 0xa3, 0x98, 0x3d, 0x73, 0x92, 0x23, 0x3e,
  0x53, 0xee, 0x08, 0x3e, 0x94, 0xc8, 0x56, 0xbe, 0xe2, 0x99, 0x9b, 0xbd,
  0x04, 0xd7, 0x45, 0xbd, 0xcf, 0x31, 0x82, 0xbd, 0x1d, 0x23, 0x63, 0x3d,
  0xad, 0x5e, 0xc4, 0xbd, 0x9c, 0x75, 0x71, 0xbd, 0x0c, 0xe2, 0x40, 0xbc,
  0x1a, 0x18, 0x41, 0xbe, 0x3d, 0x47, 0x0d, 0xbd, 0xc7, 0x63, 0x80, 0x3c,
  0x3a, 0x60, 0x96, 0xbd, 0xba, 0x69, 0x57, 0x3e, 0x5e, 0x05, 0x16, 0x3e,
  0xc4, 0x7c, 0x9a, 0xbc, 0x97, 0xa9, 0x6a, 0xbe, 0x35, 0xc7, 0x94, 0xbe,
  0x4f, 0xf3, 0x3f, 0xbd, 0x2d, 0x31, 0x13, 0xbc, 0x3b, 0x68, 0xe4, 0xbd,
  0x2d, 0x71, 0x95, 0x3d, 0x61, 0x3d, 0x80, 0x3b, 0xb3, 0xf8, 0x83, 0x3c,
  0xe4, 0xab, 0x22, 0xbe, 0x55, 0x13, 0xb1, 0xbd, 0xdc, 0xcd, 0x69, 0x3d,
  0x8c, 0xc9, 0x7d, 0xbc, 0xd4, 0xdc, 0xac, 0xbc, 0x98, 0x9c, 0x0e, 0x3e,
  0xf1, 0x94, 0x8c, 0x3c, 0x24, 0x34, 0x36, 0x3c, 0xd4, 0x1f, 0xa4, 0x3d,
  0xd0, 0x14, 0x72, 0xbd, 0x99, 0x1a, 0x58, 0x3e, 0x82, 0x0a, 0x42, 0xbd,
  0x4a, 0x61, 0x34, 0x3c, 0xed, 0x21, 0x85, 0x3c, 0x84, 0xfb, 0xb3, 0xbd,
  0xc3, 0x73, 0x2a, 0x3c, 0x17, 0x88, 0x2b, 0xbb, 0x07, 0xf6, 0x55, 0xbc,
  0x45, 0x01, 0x10, 0xbd, 0xdc, 0x86, 0xa1, 0xbe, 0x15, 0x91, 0x3e, 0xbd,
  0x8f, 0xe4, 0x1c, 0xbf, 0x9f, 0x72, 0x22, 0x3d, 0x8b, 0xa1, 0x29, 0xbd,
  0x6e, 0x78, 0x23, 0xbf, 0x4d, 0x66, 0xbc, 0xbe, 0x43, 0x48, 0x8d, 0xbe,
  0xef, 0x09, 0x1c, 0xbd, 0xe3, 0x29, 0x11, 0xbe, 0x4a, 0xfe, 0x66, 0xbe,
  0x31, 0xb1, 0x90, 0x3d, 0xef, 0x11, 0x55, 0xbc, 0x48, 0x21, 0x90, 0xbe,
  0x9d, 0x14, 0x56, 0xbe, 0x4a, 0x64, 0xa7, 0x3d, 0x1d, 0x4d, 0xd0, 0xbd,
  0x24, 0xd1, 0x80, 0xbe, 0x0e, 0xee, 0xf9, 0xbe, 0x1d, 0x89, 0x85, 0x3e,
  0xe6, 0x92, 0xbc, 0x3d, 0x8e, 0xd6, 0xa9, 0x3e, 0x7f, 0xd6, 0x90, 0x3e,
  0xce, 0x01, 0x32, 0xbd, 0x34, 0x88, 0xb1, 0xbd, 0xf2, 0xd4, 0xd0, 0xbd,
  0x05, 0x34, 0x0e, 0xbe, 0x60, 0x76, 0x12, 0xbe, 0x44, 0xfc, 0x33, 0x3c,
  0xc4, 0xf0, 0x86, 0xbe, 0x8a, 0x30, 0x82, 0xbd, 0xd2, 0x7f, 0x69, 0x3c,
  0xaf, 0xbb, 0x0a, 0x3e, 0x43, 0x2d, 0xec, 0x3b, 0xd2, 0xcc, 0xd5, 0xbd,
  0xd1, 0xe3, 0xd4, 0x3d, 0xbc, 0xb5, 0xef, 0xbd, 0x56, 0x43, 0xb3, 0x3e,
  0x59, 0xf2, 0x7e, 0x3e, 0xa7, 0x63, 0x64, 0xbe, 0x87, 0x41, 0x98, 0xbd,
  0xf0, 0x03, 0x8d, 0xbd, 0x01, 0x9a, 0x69, 0xbe, 0x77, 0xf8, 0xe8, 0xbb,
  0xad, 0x2a, 0x3b, 0xbe, 0xf1, 0x28, 0xd1, 0xbd, 0x4a, 0xed, 0x29, 0xbc,
  0x96, 0x87, 0x90, 0x3c, 0xc2, 0xdb, 0x46, 0x3e, 0xcd, 0x79, 0x9a, 0xbc,
  0x90, 0x2d, 0x10, 0x3e, 0xc3, 0x1b, 0xef, 0xbc, 0xcf, 0xd1, 0x05, 0xbe,
  0x79, 0x92, 0x9c, 0x3e, 0x08, 0x63, 0x85, 0x3e, 0x9e, 0xff, 0x5f, 0xbe,
  0xe4, 0xff, 0x84, 0xbd, 0x29, 0x9e, 0x66, 0xbd, 0xa1, 0x64, 0x90, 0xbd,
  0xd3, 0x28, 0x23, 0xbd, 0x80, 0xd9, 0x74, 0xbe, 0xb2, 0x23, 0x1a, 0xbc,
  0xac, 0xce, 0x17, 0x3e, 0xaf, 0xb6, 0x17, 0x3d, 0x9b, 0x67, 0xc5, 0x3d,
  0x51, 0x02, 0x41, 0x3e, 0xed, 0x7f, 0x7c, 0xbd, 0xc5, 0x38, 0xda, 0x3b,
  0xb5, 0x4a, 0x61, 0xbc, 0x68, 0x66, 0xad, 0x3e, 0x78, 0x8f, 0x90, 0x3e,
  0x95, 0x2b, 0x07, 0xbe, 0x90, 0x80, 0x2d, 0xbd, 0x5e, 0xf3, 0x22, 0xbd,
  0x31, 0x62, 0x76, 0xbd, 0xaa, 0xfd, 0x2a, 0x3e, 0x32, 0x58, 0x5e, 0xbe,
  0xfb, 0x4f, 0x8e, 0xbe, 0x18, 0x7d, 0x4d, 0x3e, 0xa6, 0xfb, 0x80, 0x3d,
  0x58, 0x7f, 0x64, 0x3c, 0x4d, 0xad, 0xc9, 0x3d, 0xc5, 0x93, 0xf3, 0xbd,
  0x8c, 0x7c, 0x47, 0xbe, 0xcb, 0x0f, 0x33, 0xbe, 0x1b, 0x8e, 0xa6, 0x3e,
  0x99, 0x48, 0xb8, 0x3e, 0x04, 0xdc, 0x54, 0xbe, 0x89, 0x02, 0x85, 0x3b,
  0x6f, 0x5b, 0xac, 0x3d, 0xb7, 0x01, 0xa1, 0xbe, 0x75, 0x2f, 0x5b, 0xbe,
  0x28, 0x83, 0x02, 0xbe, 0x01, 0xcb, 0x62, 0x3d, 0xff, 0x7c, 0xa7, 0x3d,
  0xcc, 0xe6, 0xb1, 0x3d, 0x93, 0x11, 0x99, 0x3c, 0xbb, 0xa6, 0xc9, 0x3d,
  0xf4, 0x85, 0xa2, 0x3e, 0xd8, 0x68, 0xba, 0xbe, 0xdb, 0xae, 0x4b, 0xbd,
  0xd4, 0xd4, 0x81, 0x3e, 0x17, 0x27, 0x88, 0x3e, 0x81, 0xdc, 0xe8, 0x3d,
  0xc9, 0x64, 0xbf, 0x3c, 0xaa, 0xe9, 0x00, 0x3d, 0x0b, 0x26, 0x6f, 0x3c,
  0x71, 0x8d, 0xaa, 0xbc, 0x19, 0xc3, 0x4f, 0x3d, 0xc1, 0x82, 0x47, 0xbd,
  0xad, 0xe1, 0x87, 0x3d, 0x02, 0xc9, 0x58, 0xbe, 0xc8, 0x59, 0x47, 0xbe,
  0x4a, 0x8f, 0xaf, 0xbe, 0x0a, 0x94, 0xc6, 0x3d, 0x61, 0xa8, 0xb6, 0x3d,
  0x17, 0xea, 0xac, 0xbe, 0x9f, 0x09, 0xd3, 0x3d, 0x25, 0xd2, 0x37, 0x3e,
  0x75, 0xc3, 0x12, 0x3f, 0xd7, 0x14, 0x05, 0x3d, 0x24, 0x19, 0xf9, 0xbe,
  0x82, 0xf7, 0xb4, 0x3c, 0x7b, 0x59, 0xf9, 0x3c, 0x3b, 0xe1, 0x05, 0xbe,
  0x62, 0xda, 0xba, 0x3e, 0x24, 0xbf, 0x07, 0x3e, 0x9b, 0x42, 0xcb, 0x3c,
  0x65, 0x2c, 0x63, 0xbe, 0x24, 0xf5, 0xb9, 0xbd, 0xf8, 0x98, 0xdc, 0x3e,
  0xf8, 0xca, 0xd0, 0x3d, 0xa8, 0xd6, 0xb9, 0x3c, 0x2d, 0x64, 0xf4, 0xbd,
  0x76, 0x13, 0x25, 0xbd, 0x66, 0x31, 0x18, 0xbc, 0xa3, 0x65, 0x88, 0xbe,
  0x57, 0x9f, 0x0a, 0xbf, 0xaa, 0xdc, 0x7c, 0xbd, 0x0b, 0x78, 0x23, 0xbe,
  0xf2, 0xd6, 0xa8, 0xbd, 0x81, 0xfe, 0xbc, 0xbe, 0x88, 0x56, 0xe7, 0x3d,
  0x8b, 0xfc, 0x05, 0x3e, 0xd0, 0x22, 0xae, 0xbe, 0xe7, 0x2c, 0xb7, 0xbd,
  0x13, 0xcd, 0x38, 0x3e, 0x7b, 0xf5, 0xdb, 0x3d, 0x69, 0xaa, 0x71, 0xbd,
  0x90, 0x80, 0x41, 0x3d, 0xc9, 0x8e, 0x4c, 0x3e, 0x28, 0xdf, 0xa5, 0xbe,
  0x72, 0x8d, 0xf0, 0xbc, 0xd9, 0x1f, 0xb8, 0xbe, 0x6c, 0x58, 0x9f, 0x3b,
  0xf7, 0xf0, 0x03, 0xbd, 0x3a, 0x3b, 0x9f, 0x3d, 0x38, 0x07, 0x96, 0xbe,
  0x3f, 0xd8, 0x21, 0xbe, 0x94, 0x59, 0xa2, 0x3e, 0x86, 0x4d, 0xb0, 0xbe,
  0xae, 0x9d, 0x40, 0x3e, 0x18, 0x45, 0xa7, 0x3e, 0xc4, 0x9e, 0x16, 0x3e,
  0xf1, 0xfe, 0x02, 0xbe, 0x73, 0xb2, 0xa8, 0x3c, 0x1f, 0x2f, 0x39, 0x3b,
  0x2e, 0xff, 0x8a, 0xbd, 0x5b, 0xc2, 0x3a, 0xbe, 0xf5, 0xff, 0x63, 0xbe,
  0xff, 0x10, 0x9a, 0x3d, 0x72, 0xca, 0x5d, 0xbe, 0x47, 0xbe, 0x36, 0x3e,
  0xf3, 0x53, 0x76, 0x3e, 0x2e, 0x96, 0x93, 0x3d, 0xb6, 0x47, 0x3c, 0x3e,
  0x80, 0xe0, 0x38, 0xbe, 0x22, 0x6b, 0xc2, 0x3c, 0x9a, 0x56, 0xb2, 0x3e,
  0x31, 0x1e, 0x87, 0x3d, 0x75, 0x7c, 0x57, 0x3d, 0x4b, 0xca, 0x3b, 0xbd,
  0xb5, 0x2a, 0x48, 0xbe, 0x78, 0x67, 0x65, 0xbc, 0xe8, 0xb4, 0xae, 0xbc,
  0xfe, 0x17, 0x73, 0xbe, 0x25, 0x88, 0x9e, 0x3d, 0xd0, 0x5b, 0x90, 0xbe,
  0xb7, 0xb4, 0x28, 0x3d, 0x24, 0x24, 0x39, 0x3d, 0x05, 0xd3, 0x80, 0x3c,
  0x49, 0xf5, 0x6b, 0x3e, 0xd3, 0xdb, 0x9b, 0xbe, 0x87, 0xd1, 0x37, 0x3c,
  0x42, 0x35, 0xa0, 0x3e, 0x3c, 0x37, 0xa4, 0x3d, 0x29, 0xc1, 0x1a, 0x3d,
  0x64, 0xf0, 0x04, 0x3d, 0x9e, 0x38, 0xd6, 0x3d, 0xe4, 0x24, 0x99, 0xbe,
  0xbe, 0xc1, 0x89, 0xbe, 0x58, 0x63, 0x8c, 0xbe, 0xe5, 0x3d, 0x1a, 0x3d,
  0xee, 0x59, 0x2c, 0xbe, 0x57, 0xbc, 0x52, 0x3d, 0xf7, 0xb7, 0xc4, 0xbe,
  0xda, 0xa8, 0xc3, 0xbd, 0x7b, 0x85, 0x1e, 0x3e, 0x44, 0x25, 0x70, 0xbe,
  0x92, 0x22, 0x01, 0xbe, 0xe9, 0x3c, 0x0c, 0xbf, 0x81, 0x84, 0x56, 0xbd,
  0x03, 0x5b, 0xae, 0x3d, 0x64, 0xd4, 0x22, 0x3d, 0x81, 0xb7, 0xf5, 0x3e,
  0xaa, 0xc5, 0xc7, 0xbe, 0x47, 0xf3, 0xcf, 0xbe, 0xd1, 0x1f, 0xbe, 0xbe,
  0x34, 0x3b, 0x26, 0x3e, 0xeb, 0x1d, 0xb2, 0xbe, 0x30, 0x05, 0xa4, 0xbd,
  0x8f, 0x1b, 0x86, 0xbb, 0x5d, 0xd0, 0xe8, 0xbd, 0x7d, 0x12, 0x03, 0xbe,
  0x5d, 0x62, 0x77, 0xbf, 0x21, 0xb3, 0x75, 0xbe, 0x8a, 0xa7, 0x9b, 0xbe,
  0x01, 0x19, 0x12, 0xbf, 0x21, 0x59, 0xa7, 0xbe, 0x76, 0x76, 0x2a, 0x3d,
  0xe2, 0x9c, 0x8a, 0xbd, 0xe9, 0xbe, 0x52, 0xbe, 0xf0, 0x73, 0x5f, 0xbd,
  0x71, 0xc9, 0x21, 0xbe, 0x8e, 0xb6, 0x4e, 0xbe, 0xf8, 0x9b, 0x43, 0xbe,
  0x85, 0xbb, 0xe5, 0xbe, 0xcd, 0xb6, 0xb1, 0xbe, 0xc8, 0x76, 0x63, 0xbe,
  0xc6, 0x73, 0x22, 0xbe, 0x43, 0x7a, 0x7c, 0xbe, 0x9b, 0x6f, 0x90, 0xbe,
  0x21, 0xeb, 0x7d, 0x3d, 0x67, 0x88, 0x2c, 0xbf, 0xee, 0xec, 0x23, 0xbe,
  0x7e, 0x24, 0x46, 0xbe, 0x8a, 0xec, 0x8d, 0xbd, 0xbe, 0x8b, 0xbc, 0xbd,
  0x81, 0x11, 0xea, 0xbc, 0x32, 0x8a, 0xbc, 0xbe, 0xb2, 0xd7, 0xd8, 0xbc,
  0xc4, 0xab, 0xeb, 0xbd, 0x7f, 0x8b, 0x08, 0xbf, 0xb7, 0xab, 0x6e, 0xbe,
  0x42, 0x52, 0x28, 0xbe, 0x3c, 0x06, 0x9e, 0xbe, 0x1f, 0xd9, 0xbc, 0xbe,
  0x8f, 0xdb, 0x4c, 0xbe, 0x9c, 0xba, 0x39, 0xbd, 0xa7, 0x52, 0x64, 0xbf,
  0xd1, 0x84, 0x92, 0xbe, 0xc0, 0xcc, 0x38, 0xbe, 0x8b, 0x1a, 0x50, 0xbd,
  0x8b, 0x48, 0xf8, 0xbc, 0x79, 0xa6, 0x86, 0xbd, 0x94, 0x00, 0xdb, 0xbe,
  0x19, 0xa8, 0x14, 0xbe, 0x40, 0xbc, 0x89, 0xbe, 0xba, 0x8b, 0x02, 0xbf,
  0x62, 0x55, 0x89, 0xbe, 0x29, 0x6f, 0xa9, 0xbe, 0xc8, 0x7d, 0xb7, 0xbe,
  0x57, 0xc9, 0xee, 0xbe, 0x9e, 0x75, 0x64, 0xbe, 0x48, 0x51, 0x0a, 0xbd,
  0xf8, 0x5a, 0x50, 0xbf, 0xd5, 0x21, 0xa9, 0xbe, 0x18, 0x91, 0xbf, 0xbe,
  0xd4, 0x9c, 0x66, 0xbe, 0x4f, 0x2c, 0x12, 0x3d, 0x79, 0xa1, 0x65, 0xbd,
  0xba, 0x19, 0x03, 0xbf, 0x73, 0x61, 0x4a, 0xbd, 0x1c, 0xcf, 0xd4, 0xbd,
  0x55, 0xd4, 0xfb, 0xbe, 0x41, 0xb2, 0x12, 0xbe, 0x8e, 0x70, 0x14, 0xbf,
  0x7b, 0x06, 0x50, 0x3e, 0x49, 0xf8, 0x12, 0xbe, 0x45, 0x41, 0x6e, 0x3e,
  0x37, 0xbb, 0x92, 0xbe, 0x10, 0xb9, 0xe6, 0xbd, 0xf4, 0x39, 0x95, 0xbe,
  0x45, 0xdc, 0x40, 0x3e, 0xf6, 0x84, 0x9a, 0x3c, 0x4a, 0x2a, 0x25, 0xbe,
  0x9a, 0xce, 0x03, 0xbe, 0x8e, 0x84, 0x27, 0xbe, 0xd3, 0x4c, 0x8b, 0xbd,
  0xb8, 0x5d, 0xbe, 0xbe, 0x3a, 0xe3, 0x0b, 0xbe, 0x90, 0x5a, 0x84, 0xbe,
  0xed, 0xed, 0x00, 0xbf, 0xfb, 0x15, 0x67, 0x3e, 0x3e, 0x67, 0xcf, 0xbd,
  0x4e, 0xbb, 0x5c, 0x3e, 0xb0, 0x25, 0x79, 0x3e, 0xe3, 0x15, 0x11, 0x3d,
  0xce, 0x75, 0x17, 0xbe, 0x6f, 0x9b, 0x7f, 0x3e, 0x55, 0x18, 0x02, 0x3c,
  0xe2, 0x53, 0x90, 0xbd, 0x18, 0x19, 0xbe, 0xbd, 0xe2, 0x3e, 0xa3, 0x3d,
  0x8f, 0x1e, 0xf8, 0xbd, 0x3c, 0x12, 0x66, 0xbe, 0x60, 0x19, 0x20, 0xbe,
  0xec, 0x1e, 0xb2, 0x3d, 0x33, 0x86, 0xc1, 0xbe, 0x0e, 0xaa, 0x34, 0x3e,
  0x14, 0x70, 0x04, 0xbd, 0x21, 0x23, 0xdc, 0x3d, 0x33, 0x88, 0x0d, 0x3e,
  0x8b, 0xef, 0x89, 0x3e, 0x07, 0x75, 0x79, 0xbd, 0xae, 0xc8, 0x7d, 0x3d,
  0x83, 0xe3, 0xa0, 0x3d, 0x9d, 0x61, 0x9f, 0xbd, 0xf5, 0x52, 0x5b, 0x3d,
  0xeb, 0xe3, 0xe7, 0x3d, 0x9d, 0xc4, 0xcd, 0xbd, 0x9c, 0x4a, 0xcb, 0xbd,
  0x2f, 0x44, 0xb8, 0x3d, 0xe9, 0xa3, 0x9a, 0x3d, 0x8b, 0x98, 0xa6, 0xbe,
  0x66, 0xd5, 0x07, 0xbe, 0xd1, 0xe5, 0x26, 0xbe, 0x72, 0x65, 0x46, 0xbe,
  0x95, 0x99, 0x89, 0x3d, 0x3a, 0xbf, 0xc1, 0xbe, 0x2f, 0xcc, 0xfa, 0xbe,
  0xb1, 0x3c, 0x5b, 0x3c, 0x84, 0xfb, 0xf4, 0xbd, 0xaa, 0x85, 0x12, 0xbe,
  0x1d, 0x58, 0xd3, 0xbe, 0x25, 0xd3, 0x6c, 0xbe, 0xee, 0x70, 0x32, 0x3d,
  0x0d, 0x83, 0x87, 0xbd, 0x94, 0xb3, 0xa3, 0xbe, 0xed, 0x1b, 0x63, 0xbe,
  0x21, 0x1b, 0xe4, 0xbe, 0x0c, 0x41, 0x61, 0x3e, 0xf2, 0xf1, 0x2b, 0xbf,
  0xc0, 0xe0, 0xa3, 0xbd, 0x7b, 0x50, 0x54, 0xbe, 0xb9, 0x84, 0xd5, 0xbe,
  0xbf, 0xc0, 0xa9, 0xbe, 0x8b, 0x3a, 0x5a, 0xbe, 0x09, 0x02, 0x2a, 0xbe,
  0x5b, 0xee, 0x75, 0xbe, 0x39, 0x12, 0x27, 0xbf, 0x4f, 0xa5, 0x9f, 0xbe,
  0xbf, 0xbb, 0xf6, 0x3c, 0x2a, 0x2d, 0x20, 0xbb, 0xd6, 0xcc, 0xcb, 0xbe,
  0x40, 0xc0, 0x0a, 0xbe, 0x62, 0x90, 0xc8, 0xbe, 0x1d, 0xd1, 0xcd, 0xbc,
  0x27, 0x0d, 0x40, 0x3e, 0x55, 0x08, 0x27, 0x3d, 0x66, 0xf5, 0x93, 0xbe,
  0x01, 0x2f, 0xe2, 0xbe, 0x6d, 0x65, 0xf9, 0x3d, 0x34, 0x01, 0x58, 0xbe,
  0x97, 0xea, 0xe6, 0xbe, 0x26, 0xa0, 0x08, 0xbe, 0x79, 0xee, 0x1d, 0x3d,
  0x56, 0x0e, 0x08, 0xbd, 0x2e, 0xf2, 0x71, 0x3d, 0xff, 0xa3, 0xd3, 0xbe,
  0xd0, 0xac, 0x4d, 0xbd, 0x1d, 0x2f, 0x27, 0xbe, 0xba, 0xc8, 0x91, 0xbd,
  0xef, 0x85, 0x0f, 0xbe, 0x5a, 0x34, 0x70, 0x3e, 0x61, 0x41, 0xf5, 0xbc,
  0x03, 0x30, 0x4e, 0xbe, 0xca, 0x0b, 0x8e, 0xbd, 0x7a, 0x8d, 0xd6, 0x3d,
  0x3f, 0x95, 0xcd, 0xbd, 0x47, 0xf8, 0x53, 0xbe, 0x75, 0x88, 0xd9, 0xbd,
  0x3c, 0xe3, 0x58, 0x3d, 0x4a, 0x1b, 0xe6, 0x3d, 0xb5, 0x0e, 0x26, 0x3d,
  0xc0, 0x45, 0x3d, 0x3e, 0x04, 0xca, 0x6a, 0xbd, 0x30, 0xfd, 0x42, 0xbe,
  0x0e, 0x40, 0x8f, 0x3e, 0xb0, 0x1e, 0xa2, 0xbe, 0xc2, 0x37, 0x7f, 0x3e,
  0x5e, 0x54, 0x6a, 0x3c, 0x59, 0x5f, 0x7e, 0xbe, 0xac, 0xe3, 0xec, 0xbd,
  0x98, 0x0f, 0x85, 0x3e, 0xb6, 0xf1, 0x7a, 0xbe, 0x54, 0x90, 0xa2, 0xbd,
  0xc3, 0xcb, 0x19, 0xbe, 0xa3, 0xdf, 0x42, 0xbd, 0x5b, 0xa2, 0xa0, 0xbd,
  0x46, 0x9f, 0x39, 0xbd, 0xe1, 0x67, 0x94, 0x3d, 0x80, 0xbb, 0xb4, 0x3d,
  0x53, 0x9b, 0xe5, 0x3c, 0x8c, 0xf0, 0x7c, 0x3e, 0x1d, 0x6a, 0x5d, 0xbe,
  0xed, 0xa9, 0x64, 0x3e, 0x18, 0x76, 0x8b, 0xbe, 0x64, 0xf1, 0x80, 0xbd,
  0x6c, 0xc7, 0x71, 0xbd, 0x71, 0xac, 0x96, 0x3e, 0x13, 0xbd, 0xa9, 0xbe,
  0x41, 0xa1, 0x77, 0xbd, 0xa6, 0x42, 0x68, 0xbe, 0xe1, 0x76, 0x54, 0xbe,
  0x08, 0xdd, 0xdb, 0xbd, 0xb6, 0x3e, 0x03, 0xbe, 0x95, 0x8e, 0x86, 0x3e,
  0xff, 0x8f, 0x00, 0x3e, 0x6f, 0xf5, 0x3c, 0xbc, 0x49, 0xed, 0xec, 0xbd,
  0x01, 0xf1, 0x00, 0xbe, 0xca, 0x77, 0x03, 0x3e, 0xb3, 0x00, 0xa0, 0xbd,
  0x71, 0xd9, 0x7a, 0x3e, 0xdb, 0xac, 0xb6, 0xbd, 0x85, 0x17, 0x4d, 0x3d,
  0x9b, 0xac, 0x28, 0xbe, 0xc8, 0xe1, 0x58, 0xbe, 0xc7, 0x9d, 0xba, 0x3e,
  0x50, 0x10, 0xe0, 0xbb, 0xc0, 0x65, 0xd9, 0xbc, 0xca, 0x92, 0xe6, 0xbe,
  0xf0, 0xc6, 0x5c, 0x3e, 0xf2, 0xaf, 0x01, 0xbd, 0xbb, 0x90, 0xa8, 0xbd,
  0x01, 0x8a, 0xa8, 0xbb, 0xbb, 0x8e, 0x9d, 0xbe, 0x9d, 0x2a, 0xc9, 0x3d,
  0xab, 0x2f, 0xb0, 0xbe, 0x38, 0x50, 0x27, 0xbe, 0xbd, 0x2a, 0x9c, 0xbe,
  0x7e, 0xb5, 0x3c, 0x3e, 0xde, 0xe7, 0x15, 0xbe, 0x32, 0x96, 0x99, 0xbd,
  0x52, 0xb4, 0xa2, 0x3d, 0xe7, 0x56, 0x13, 0xbe, 0xe8, 0x23, 0xf8, 0xbd,
  0xcd, 0xee, 0x9c, 0xbe, 0xe9, 0x45, 0x8d, 0x3e, 0xf8, 0x18, 0xeb, 0x3d,
  0xfa, 0x43, 0x67, 0xbe, 0x71, 0x5a, 0xe4, 0x3d, 0xf7, 0x50, 0xd8, 0x3d,
  0x78, 0xe9, 0x75, 0x3e, 0xb7, 0x55, 0x14, 0x3e, 0x10, 0x18, 0x85, 0x3e,
  0x30, 0x5e, 0x2f, 0xbd, 0x44, 0xf2, 0x76, 0xbe, 0xe7, 0x2c, 0xb9, 0x3d,
  0xb1, 0xa5, 0x4c, 0xbe, 0x6a, 0x9c, 0x6c, 0x3f, 0x7d, 0x29, 0x29, 0xbe,
  0x8d, 0x9c, 0xa6, 0xbd, 0xdf, 0x5e, 0xae, 0xbe, 0xec, 0x93, 0x83, 0x3e,
  0x64, 0x5f, 0xb9, 0x3b, 0x16, 0xc3, 0xd7, 0x3e, 0x25, 0x66, 0x02, 0x3e,
  0xa9, 0xa9, 0x28, 0x3e, 0x84, 0xd3, 0x5f, 0x3e, 0x86, 0x14, 0x81, 0x3d,
  0x7e, 0x86, 0xa9, 0x3d, 0x49, 0x78, 0x39, 0xbe, 0x62, 0x66, 0x19, 0x3e,
  0x9f, 0x59, 0x8d, 0x39, 0x83, 0x54, 0x80, 0xbe, 0x94, 0x5f, 0x46, 0x3f,
  0x06, 0x80, 0xc7, 0xbd, 0x55, 0x10, 0xd6, 0x3d, 0x2b, 0x60, 0x74, 0xbe,
  0x5d, 0xf0, 0x9e, 0x3d, 0x0a, 0x71, 0xa3, 0xbe, 0xa7, 0x91, 0xa2, 0x3e,
  0x0b, 0x24, 0x3f, 0x3d, 0x69, 0x79, 0x0b, 0x3e, 0xe9, 0x65, 0x8c, 0x3d,
  0xce, 0x2e, 0x46, 0x3d, 0xfd, 0xf7, 0x98, 0x3e, 0x06, 0x74, 0xbd, 0xbd,
  0xfc, 0x1f, 0x23, 0x3e, 0x54, 0xfd, 0x0a, 0xbc, 0x38, 0x45, 0x3f, 0xbe,
  0xe4, 0x1b, 0x5a, 0x3f, 0x05, 0xae, 0x57, 0xbe, 0x34, 0xac, 0x4c, 0xbd,
  0xcb, 0x88, 0xd2, 0xbd, 0xd5, 0x74, 0x33, 0xbe, 0x15, 0x70, 0x13, 0xbe,
  0x15, 0x7d, 0x01, 0x3f, 0xd6, 0x29, 0x23, 0x3c, 0xee, 0xa2, 0x0d, 0x3c,
  0x74, 0xa8, 0x3d, 0xbe, 0xb5, 0x7b, 0xe1, 0x3d, 0x50, 0x36, 0x5b, 0x3e,
  0x36, 0xa3, 0x95, 0x3d, 0xdb, 0xfb, 0xc5, 0xbd, 0x8c, 0xf4, 0x9d, 0x3d,
  0x39, 0x45, 0xaa, 0xbd, 0xdc, 0x0d, 0x62, 0x3f, 0x63, 0xaf, 0x73, 0xbe,
  0x4f, 0xb4, 0x08, 0x3a, 0xda, 0xd0, 0xd5, 0x3d, 0x71, 0x51, 0x84, 0x3c,
  0x75, 0x8d, 0x8a, 0xbd, 0x57, 0x5b, 0xcd, 0x3e, 0x3c, 0x1a, 0x61, 0xbe,
  0xe5, 0x3b, 0xc9, 0xbd, 0xde, 0xed, 0x87, 0xbe, 0xec, 0xa0, 0xbf, 0x3c,
  0x5c, 0x2c, 0x8f, 0x3e, 0x7b, 0xcf, 0xfb, 0x3d, 0xf0, 0x0e, 0x23, 0x3c,
  0x08, 0x5e, 0x0d, 0xbe, 0xad, 0xdc, 0x5d, 0xbe, 0x99, 0x14, 0x39, 0x3f,
  0x1f, 0x45, 0x87, 0xbe, 0x50, 0x00, 0x27, 0xbe, 0xb0, 0x0c, 0xea, 0x3c,
  0xe0, 0x17, 0x1d, 0xbe, 0x23, 0x31, 0xf4, 0x3d, 0x5d, 0x87, 0x1c, 0x3f,
  0x72, 0xa2, 0xe8, 0x3c, 0x75, 0x3b, 0x2a, 0x3c, 0x96, 0x89, 0x0e, 0xbe,
  0x7e, 0x3b, 0x8a, 0xbe, 0xaf, 0x82, 0x83, 0xbd, 0x67, 0xd1, 0xef, 0x3d,
  0x81, 0x75, 0x33, 0xbc, 0xca, 0x2e, 0x1b, 0xbe, 0x45, 0x19, 0x2a, 0xbd,
  0x8c, 0xf7, 0x85, 0x3f, 0xaf, 0xdc, 0x22, 0xbe, 0x77, 0x7b, 0x1d, 0xbe,
  0x56, 0x16, 0xbc, 0x3c, 0x84, 0x40, 0x8a, 0xbe, 0x3a, 0x4d, 0x0c, 0xbd,
  0x19, 0xd8, 0xe5, 0x3e, 0x4b, 0x79, 0xee, 0x3d, 0x18, 0x27, 0x16, 0x3e,
  0x5b, 0x28, 0x74, 0xbe, 0x99, 0x94, 0x82, 0xbe, 0x8f, 0x04, 0x37, 0x3d,
  0x89, 0x29, 0x24, 0x3e, 0x14, 0xb5, 0x06, 0xbf, 0xac, 0xe1, 0x00, 0xbf,
  0x7f, 0xc4, 0x95, 0xbe, 0x89, 0x71, 0x87, 0xbe, 0xb2, 0x2c, 0x00, 0xbe,
  0x6b, 0x53, 0x66, 0xbe, 0x21, 0x92, 0x22, 0x3e, 0x42, 0xec, 0x07, 0xbe,
  0x7f, 0x36, 0xe3, 0xbe, 0x0f, 0xad, 0xeb, 0xbe, 0x8f, 0x61, 0xcf, 0xbd,
  0xa4, 0x68, 0x1d, 0x3e, 0xe4, 0x1d, 0xe4, 0x3c, 0x2b, 0x1f, 0x27, 0xbd,
  0x06, 0xa2, 0x86, 0xbe, 0xed, 0x45, 0x10, 0x3e, 0xa7, 0xb4, 0x1c, 0x3e,
  0x0a, 0x2f, 0xe0, 0x3e, 0x41, 0xf5, 0xc3, 0x3e, 0x4b, 0x10, 0xc7, 0x3f,
  0x47, 0x70, 0xd4, 0xbd, 0xe7, 0x2d, 0x13, 0xbd, 0xb8, 0x67, 0xd3, 0x3d,
  0x57, 0xda, 0x09, 0x3e, 0x3a, 0xa9, 0xe5, 0xbb, 0x89, 0x7e, 0xd1, 0x3e,
  0x73, 0xce, 0x4f, 0x3b, 0x00, 0x4a, 0xe9, 0xbd, 0x7f, 0x43, 0x64, 0x3e,
  0xff, 0x18, 0x96, 0x3d, 0x94, 0x5d, 0x96, 0x3c, 0x8c, 0xb2, 0xbe, 0x3d,
  0xcb, 0xa6, 0x38, 0x3e, 0x88, 0x56, 0xa0, 0x3e, 0xc4, 0x87, 0x71, 0x3e,
  0x6e, 0x6a, 0xc0, 0x3f, 0x86, 0x15, 0x32, 0x3c, 0x62, 0x51, 0x9c, 0xbc,
  0x0e, 0xd0, 0xde, 0x3c, 0x69, 0x90, 0x05, 0x3e, 0xcf, 0xf1, 0xa6, 0x3d,
  0x0e, 0xfd, 0x94, 0x3e, 0xa5, 0xcb, 0x13, 0x3e, 0x78, 0xe0, 0x0e, 0x3e,
  0xe2, 0x34, 0x2b, 0x3e, 0x59, 0x87, 0xc4, 0x3d, 0x41, 0xf5, 0x3b, 0xbe,
  0xd5, 0x08, 0xee, 0xbd, 0x9b, 0x64, 0x0b, 0x3d, 0x5a, 0xf5, 0x85, 0x3e,
  0xbd, 0xbd, 0x91, 0x3e, 0x0c, 0x24, 0xa8, 0x3f, 0x45, 0x90, 0x7a, 0xbc,
  0x04, 0xa5, 0xcc, 0x3c, 0xf7, 0x90, 0x0b, 0x3d, 0x4d, 0x17, 0xa1, 0x3c,
  0xad, 0x5c, 0x9d, 0x3a, 0x33, 0x0c, 0x5f, 0x3e, 0x04, 0xec, 0x8a, 0x3e,
  0x63, 0x1a, 0x71, 0xbe, 0xcd, 0x56, 0x50, 0x3e, 0x19, 0xfd, 0x1e, 0xbe,
  0x1e, 0xb3, 0x06, 0x3e, 0x00, 0xb0, 0xaa, 0xbd, 0x73, 0x79, 0x58, 0x3d,
  0x5c, 0x9b, 0x2a, 0x3e, 0x15, 0xb3, 0xbc, 0x3e, 0xa5, 0xc3, 0x9a, 0x3f,
  0x4b, 0xdf, 0xac, 0x3b, 0xe9, 0x44, 0x9e, 0xbd, 0x88, 0x26, 0x93, 0xbc,
  0x13, 0x9b, 0x1f, 0x3e, 0x0e, 0xc6, 0xb9, 0x3d, 0xc4, 0xf2, 0x0d, 0x3c,
  0xb0, 0x47, 0x8c, 0x3e, 0x33, 0x78, 0x5a, 0xbe, 0xcc, 0x49, 0x08, 0x3e,
  0xa3, 0x16, 0x08, 0xbe, 0x3e, 0x6e, 0x01, 0x3e, 0xf7, 0xa9, 0x2a, 0xbe,
  0x21, 0x72, 0x7d, 0x3e, 0x05, 0xfe, 0x2d, 0x3e, 0x47, 0xbc, 0x84, 0x3e,
  0xec, 0xbf, 0xdd, 0x3f, 0x30, 0xbc, 0x33, 0x3c, 0xb4, 0xc2, 0xb3, 0xbd,
  0x3d, 0x63, 0x3b, 0xbe, 0xe0, 0xc2, 0x16, 0x3e, 0x24, 0x0b, 0x0d, 0x3e,
  0x96, 0x55, 0x29, 0x3e, 0xd1, 0xad, 0x67, 0x3e, 0xf9, 0x34, 0xf6, 0xbd,
  0xa3, 0xd9, 0x02, 0x3d, 0x01, 0xe6, 0xe7, 0xbc, 0x70, 0x14, 0x08, 0x3e,
  0x67, 0xa3, 0x9c, 0xbe, 0xc2, 0x77, 0xa0, 0x3d, 0x25, 0x59, 0x49, 0x3e,
  0x01, 0xa5, 0x8b, 0x3e, 0xe6, 0xa1, 0x9e, 0x3e, 0x5e, 0xc5, 0x00, 0xbd,
  0x66, 0x56, 0x2b, 0xbd, 0xb5, 0x4f, 0xc3, 0xbe, 0x4f, 0xd3, 0x64, 0x3e,
  0xab, 0xcd, 0xc6, 0xbd, 0x76, 0xa6, 0x86, 0xbd, 0x68, 0x43, 0xa5, 0x3d,
  0x64, 0x8a, 0xbe, 0xbd, 0x20, 0x50, 0x7a, 0xbe, 0x9a, 0x98, 0x6f, 0xbd,
  0x89, 0xc2, 0xc9, 0xbd, 0x59, 0x31, 0x87, 0xbe, 0x7c, 0xd9, 0x7e, 0xbd,
  0x76, 0xf2, 0x06, 0xbe, 0xee, 0x66, 0x0f, 0xbc, 0x23, 0xe2, 0x45, 0x3e,
  0x57, 0xc6, 0x66, 0xbd, 0xa4, 0xed, 0x8f, 0xbe, 0xa9, 0x67, 0xb2, 0x3c,
  0x55, 0x1f, 0xa4, 0x3d, 0x0e, 0xe5, 0xd2, 0xbd, 0x6f, 0xb9, 0xb4, 0x3c,
  0x0e, 0x7a, 0x8c, 0xbd, 0xa7, 0xc2, 0xc7, 0x3a, 0x2e, 0x91, 0xd5, 0x3b,
  0xc4, 0x9a, 0x36, 0xbe, 0x58, 0xab, 0xfc, 0xbd, 0xe7, 0x97, 0x98, 0xbc,
  0xe2, 0x9a, 0xa9, 0xbd, 0x05, 0x79, 0x01, 0x3e, 0xd3, 0x97, 0x50, 0xbe,
  0x9b, 0x71, 0x1d, 0x3f, 0x9e, 0x21, 0xcd, 0xbd, 0xae, 0x6a, 0xef, 0xbd,
  0xf5, 0x08, 0xbe, 0xbc, 0x0b, 0x61, 0xaf, 0x3c, 0x81, 0xfc, 0xf5, 0xbd,
  0x0c, 0xcd, 0x92, 0x3e, 0xcf, 0x7d, 0x45, 0xbd, 0x1e, 0x22, 0x84, 0x3d,
  0x2e, 0x71, 0x49, 0xbd, 0x98, 0x82, 0x8b, 0x3d, 0xb6, 0xb1, 0x4b, 0x3e,
  0xa1, 0xc8, 0x11, 0xbd, 0xf6, 0x84, 0x4e, 0xbe, 0x98, 0x2d, 0x29, 0x3e,
  0x99, 0x16, 0x65, 0xbe, 0x22, 0xde, 0x14, 0x3f, 0x14, 0x86, 0x63, 0xbd,
  0xa3, 0x16, 0xef, 0xbd, 0x7c, 0x32, 0x00, 0xbe, 0x90, 0x51, 0x51, 0xbe,
  0x27, 0xf9, 0x6d, 0xbe, 0x31, 0xef, 0x03, 0x3f, 0xdc, 0x67, 0x0f, 0xbe,
  0x0a, 0x46, 0x91, 0x3d, 0x0f, 0x98, 0x8e, 0xbd, 0x3f, 0x63, 0x37, 0xbe,
  0x82, 0xd2, 0xaf, 0x3c, 0xb8, 0xe6, 0x23, 0xbd, 0xdb, 0xb2, 0xb9, 0xbc,
  0x6e, 0x9c, 0x56, 0xbe, 0x0e, 0xe3, 0xc0, 0xbd, 0x52, 0xff, 0x32, 0x3f,
  0x90, 0x67, 0x6b, 0xbe, 0xdc, 0xbe, 0xdf, 0xbe, 0x2e, 0x85, 0x66, 0xbe,
  0x44, 0xfa, 0x18, 0xbd, 0x81, 0x45, 0x81, 0xbd, 0x2f, 0x3a, 0xc7, 0x3e,
  0x34, 0x57, 0x66, 0x3d, 0x7b, 0xb3, 0x05, 0xbe, 0xde, 0x8c, 0xbf, 0x3c,
  0x3f, 0x0d, 0xf6, 0xbd, 0x08, 0xc8, 0x8b, 0x3d, 0xbd, 0x9d, 0x62, 0xbe,
  0xa8, 0x9f, 0xc3, 0xbd, 0x47, 0x5c, 0x57, 0x3c, 0x32, 0x4e, 0x96, 0x3d,
  0x76, 0x79, 0x79, 0x3e, 0x12, 0x1a, 0xf2, 0xbd, 0xda, 0x7f, 0xdb, 0xbd,
  0x87, 0x5f, 0x4b, 0xbd, 0x58, 0x52, 0x2c, 0x3d, 0x58, 0xcf, 0x94, 0xbe,
  0xd2, 0x3a, 0xf1, 0x3e, 0x2d, 0x9d, 0x27, 0xbe, 0x3a, 0x8f, 0x8e, 0x3d,
  0xab, 0x51, 0x5d, 0xbd, 0x4a, 0x4e, 0xab, 0x3e, 0x2a, 0x95, 0xf9, 0xbd,
  0x91, 0xee, 0x32, 0x3e, 0xc4, 0x00, 0x94, 0xbd, 0x47, 0x86, 0xad, 0x3d,
  0xd7, 0x07, 0xe5, 0xbd, 0x65, 0x7d, 0x06, 0x3f, 0x1f, 0xa8, 0x1d, 0xbd,
  0x46, 0x9c, 0x8e, 0xbd, 0xd8, 0x1d, 0x9a, 0xbd, 0x14, 0xf6, 0x0c, 0xbd,
  0x19, 0x0f, 0x26, 0xbe, 0x52, 0x67, 0xa2, 0x3e, 0x80, 0x24, 0x9e, 0xbb,
  0x1c, 0xe0, 0x8a, 0x3e, 0xf6, 0xc9, 0x23, 0xbd, 0x99, 0x82, 0x3e, 0xbd,
  0x5a, 0x8e, 0xc5, 0x3d, 0xd5, 0x6a, 0x24, 0xbc, 0x23, 0x6c, 0x18, 0xbd,
  0xb3, 0x76, 0x06, 0x3e, 0xfe, 0xda, 0xa8, 0x3c, 0x92, 0x38, 0xf0, 0x3e,
  0x05, 0xa7, 0x60, 0xbd, 0xc3, 0xfd, 0x61, 0x3d, 0xf7, 0xca, 0xec, 0xbd,
  0x06, 0x4f, 0xa7, 0x3c, 0xdd, 0xb6, 0x58, 0xbd, 0x53, 0xcf, 0x2a, 0x3e,
  0x0f, 0xf5, 0x4b, 0xbe, 0xa5, 0x56, 0x95, 0xbe, 0x47, 0x8e, 0xc4, 0xbd,
  0x71, 0x0f, 0xe1, 0xbd, 0x4a, 0x28, 0x84, 0x3d, 0x86, 0x08, 0x3a, 0xbd,
  0xbe, 0xe6, 0xb7, 0xbe, 0x8b, 0x8b, 0x63, 0xbb, 0x9f, 0x74, 0x9d, 0xbe,
  0x12, 0x9a, 0xe3, 0xbd, 0x3b, 0x71, 0xc4, 0xbe, 0xc5, 0xd3, 0xec, 0xbe,
  0xfe, 0x03, 0x76, 0x3d, 0xfe, 0x8f, 0x45, 0x3d, 0xa5, 0xb0, 0x6c, 0xbe,
  0x76, 0xbb, 0xd2, 0xbd, 0x0b, 0x35, 0xf7, 0xbd, 0x8e, 0x08, 0xb1, 0x3e,
  0x94, 0x9f, 0xd0, 0xbe, 0x94, 0x0a, 0x90, 0xbc, 0x48, 0x55, 0x4b, 0xbe,
  0x09, 0x36, 0x27, 0xbe, 0xbc, 0x39, 0x75, 0xb8, 0x17, 0xc6, 0x76, 0xbd,
  0x20, 0x09, 0xf2, 0x3c, 0x5a, 0x39, 0x91, 0xbe, 0x5d, 0x44, 0x8d, 0xbe,
  0xbb, 0x76, 0xc5, 0xbb, 0xc8, 0x21, 0x80, 0x3d, 0x54, 0x10, 0xa7, 0xbd,
  0x2a, 0x6a, 0xa4, 0xbd, 0xa8, 0xa4, 0x8c, 0xbd, 0xd9, 0x42, 0xc7, 0xbe,
  0x2a, 0xf4, 0x65, 0x3d, 0xb2, 0x15, 0x77, 0x3d, 0x34, 0x2f, 0x19, 0xbe,
  0xfe, 0x92, 0x53, 0xbd, 0x26, 0xf2, 0xee, 0xbd, 0x40, 0x86, 0xb2, 0x3e,
  0x14, 0x35, 0x6d, 0xbc, 0x1c, 0xbe, 0x28, 0xbe, 0xd5, 0x77, 0x0d, 0x3e,
  0x17, 0x85, 0x27, 0xbd, 0xc0, 0x07, 0x62, 0xbe, 0x23, 0x7f, 0x65, 0xbb,
  0x3a, 0xf1, 0x82, 0x3d, 0x25, 0x93, 0x4e, 0x3e, 0x51, 0x40, 0x0e, 0xbe,
  0x49, 0x0a, 0xa6, 0xbd, 0x05, 0xc2, 0xf3, 0xbd, 0x0b, 0xeb, 0x59, 0x3e,
  0x5b, 0x9f, 0x1e, 0x3c, 0x93, 0xd3, 0x2d, 0x3e, 0xd7, 0x87, 0x92, 0xbd,
  0xc3, 0xec, 0x61, 0x3e, 0x3b, 0x23, 0x8b, 0xbe, 0x2e, 0x46, 0x3b, 0xbe,
  0x78, 0x18, 0x1a, 0xbe, 0xf5, 0x07, 0x97, 0xbd, 0xa0, 0xf9, 0xc8, 0xbc,
  0x8c, 0x9f, 0x23, 0xbe, 0x60, 0x0c, 0x5d, 0x3e, 0x05, 0x96, 0x1a, 0x3e,
  0xd4, 0x1f, 0x62, 0xbd, 0xa6, 0x24, 0x80, 0xbd, 0xde, 0x34, 0x65, 0xbd,
  0xbf, 0x32, 0x8f, 0x3e, 0x3a, 0x61, 0xe6, 0xbc, 0x3e, 0x60, 0xa8, 0x3d,
  0xd9, 0xf3, 0x36, 0x3e, 0x30, 0x08, 0x91, 0x3e, 0xcc, 0x02, 0x41, 0xbe,
  0xfe, 0x60, 0x8d, 0xbb, 0x12, 0xfc, 0xce, 0xbc, 0xe0, 0xa8, 0xc0, 0xbd,
  0xdb, 0x1f, 0xc6, 0xbc, 0xad, 0xa5, 0xbd, 0xbe, 0x5a, 0xd4, 0x91, 0x3e,
  0xd4, 0x34, 0xee, 0x3d, 0x07, 0xad, 0xfa, 0xbd, 0x7a, 0x06, 0x04, 0xbd,
  0x28, 0x76, 0x17, 0xba, 0xb1, 0x18, 0x3a, 0x3e, 0x4d, 0x07, 0x10, 0xbe,
  0xb6, 0xc9, 0x16, 0x3e, 0x4a, 0x75, 0xbe, 0xbe, 0x8d, 0x06, 0xc0, 0xbe,
  0x01, 0xed, 0x5f, 0xbe, 0xa3, 0x7d, 0x73, 0xbd, 0xcf, 0xf1, 0x6c, 0xbe,
  0xde, 0x0f, 0x38, 0xbe, 0xe4, 0x77, 0x2f, 0xbd, 0xff, 0x2a, 0xe5, 0xbe,
  0xf6, 0xb9, 0x06, 0x3e, 0x1c, 0xd0, 0x02, 0xbe, 0x3a, 0xb7, 0x70, 0xbd,
  0x7a, 0x6e, 0x8b, 0xbe, 0x02, 0x39, 0xb0, 0x3c, 0xc1, 0x87, 0xf1, 0xbd,
  0x79, 0x73, 0x09, 0xbe, 0x40, 0xbc, 0x29, 0x3e, 0xdb, 0x74, 0xf4, 0xbd,
  0x8b, 0xfe, 0xd9, 0x3c, 0xb6, 0x11, 0xe1, 0xbd, 0x61, 0x1b, 0xf0, 0xbd,
  0x29, 0x78, 0xe9, 0x3d, 0x1f, 0x15, 0xe4, 0xbd, 0x45, 0xd9, 0x03, 0xbe,
  0xf4, 0xa5, 0xaa, 0xbd, 0x82, 0x95, 0xf5, 0xbe, 0xf0, 0x4a, 0x02, 0xbe,
  0xfc, 0x0d, 0x14, 0x3e, 0xaf, 0x39, 0x54, 0xbe, 0x7d, 0x63, 0x77, 0xbc,
  0x6e, 0x67, 0x75, 0xbe, 0x62, 0xab, 0x86, 0xbc, 0xe9, 0x95, 0xe9, 0xbc,
  0x2e, 0xb8, 0x5d, 0x3d, 0x88, 0xd1, 0x80, 0xbd, 0xf1, 0xdf, 0x0e, 0xbe,
  0x97, 0xdb, 0x19, 0xbc, 0x7c, 0x69, 0x2d, 0x3e, 0x4d, 0x57, 0xcb, 0xbe,
  0x39, 0x5a, 0x2e, 0xbe, 0xf7, 0x76, 0x27, 0xbd, 0x7b, 0xc6, 0xdc, 0xbd,
  0x1d, 0xec, 0x30, 0xbd, 0x44, 0x36, 0xbc, 0x3d, 0x18, 0xd7, 0x78, 0x3d,
  0x7c, 0x52, 0xfd, 0x3c, 0x0f, 0x14, 0x12, 0x3d, 0x24, 0x18, 0x02, 0x3d,
  0x04, 0x53, 0xae, 0x3c, 0x9a, 0x2f, 0x5c, 0xbe, 0x42, 0xca, 0x99, 0x3c,
  0x5c, 0x96, 0x11, 0xbe, 0x36, 0xdf, 0xf3, 0xbd, 0xfa, 0xad, 0x8d, 0x3f,
  0xbc, 0xaf, 0x20, 0xbe, 0xc2, 0x57, 0x5d, 0xbe, 0xb6, 0xb0, 0xce, 0xbb,
  0x18, 0x61, 0x2a, 0x3d, 0x2d, 0x9e, 0x63, 0xbe, 0x24, 0x49, 0x30, 0x3f,
  0xa1, 0x44, 0xa5, 0xbd, 0x34, 0x38, 0xa0, 0xbd, 0x6e, 0x8d, 0xa3, 0x3c,
  0x88, 0x4f, 0x9a, 0x3d, 0xd7, 0xf1, 0xf4, 0x3d, 0xd0, 0x50, 0x78, 0xbd,
  0xd1, 0xc9, 0xef, 0x3a, 0x31, 0x7a, 0xd8, 0xbd, 0xdb, 0x3a, 0xd8, 0x3d,
  0x43, 0xb1, 0x93, 0x3f, 0x6d, 0xf8, 0xd6, 0xbe, 0x9d, 0x06, 0xae, 0xbc,
  0x66, 0xae, 0xb1, 0xbd, 0x40, 0xa5, 0xfe, 0xbd, 0xe3, 0xbf, 0xc8, 0xbb,
  0x17, 0x12, 0x30, 0x3f, 0x14, 0xb2, 0x28, 0x3e, 0xac, 0x44, 0x7a, 0x3d,
  0xd8, 0x42, 0x38, 0x3e, 0xbc, 0x91, 0xce, 0x3d, 0x1f, 0x7d, 0xd9, 0x3d,
  0xe2, 0xcb, 0x9f, 0x3d, 0x82, 0x8d, 0x7a, 0xbd, 0x97, 0x1e, 0x04, 0x3e,
  0xef, 0x3d, 0x48, 0xbd, 0x6f, 0x83, 0x4f, 0x3f, 0x4c, 0xe5, 0xb7, 0xbe,
  0x3f, 0x25, 0x4b, 0xbe, 0x2b, 0xff, 0x09, 0xbd, 0x68, 0x7d, 0x30, 0xbe,
  0xd9, 0x57, 0x0f, 0x3e, 0xab, 0x79, 0xec, 0x3e, 0x09, 0xef, 0x48, 0x3d,
  0x8e, 0xe8, 0xc3, 0xbd, 0x16, 0x32, 0xff, 0xbd, 0x90, 0x36, 0x44, 0x3e,
  0xce, 0x85, 0xcb, 0xbc, 0x37, 0x24, 0x16, 0xbe, 0x61, 0xb5, 0xc2, 0x3d,
  0xe5, 0xfe, 0x9b, 0x3b, 0x11, 0x16, 0x9c, 0xbe, 0xde, 0xd1, 0x6a, 0x3f,
  0x3d, 0x40, 0xb2, 0xbe, 0x5d, 0x0d, 0xb5, 0xbd, 0xf8, 0xe2, 0x29, 0xbe,
  0x9e, 0xe7, 0xbb, 0xbd, 0xd8, 0x0e, 0xed, 0xbc, 0x21, 0xca, 0xc3, 0x3e,
  0x04, 0x7e, 0x3d, 0x3c, 0xa9, 0x89, 0x56, 0x3d, 0xbf, 0x91, 0x01, 0x3e,
  0x4c, 0xe6, 0x92, 0x3c, 0x79, 0x48, 0xef, 0xbd, 0x54, 0xab, 0x1d, 0x3d,
  0xbb, 0xf3, 0x5c, 0x3e, 0x65, 0x09, 0x60, 0xbe, 0xe0, 0x9b, 0xfb, 0x3d,
  0xb5, 0xbe, 0x60, 0x3f, 0xee, 0x6d, 0xb7, 0xbe, 0x32, 0x21, 0x00, 0xbe,
  0x8b, 0x47, 0x7f, 0xbe, 0xa3, 0x73, 0x7e, 0xbc, 0xb8, 0xe3, 0x72, 0xbe,
  0xd7, 0x55, 0x90, 0x3e, 0x62, 0xe7, 0xa7, 0x3d, 0x2a, 0xcf, 0x43, 0xbe,
  0x3f, 0x39, 0xcb, 0xbc, 0x66, 0x39, 0x26, 0xbe, 0x75, 0x9f, 0xe4, 0x3d,
  0x7e, 0x49, 0xde, 0xbc, 0x28, 0x05, 0x04, 0xbe, 0x50, 0x05, 0xa7, 0x3d,
  0x13, 0x3c, 0x6c, 0xbe, 0x50, 0xba, 0x07, 0x3f, 0xfc, 0x27, 0xa3, 0xbd,
  0xf0, 0x3e, 0x32, 0xbe, 0x1a, 0x5c, 0x4b, 0xbd, 0xd0, 0x46, 0x16, 0xbe,
  0x52, 0xbc, 0x2f, 0xbe, 0x9f, 0x67, 0x99, 0x3e, 0xa0, 0xcc, 0x8b, 0xbd,
  0x46, 0xfe, 0xff, 0xff, 0x10, 0x00, 0x00, 0x00, 0x05, 0x00, 0x00, 0x00,
  0x14, 0x00, 0x00, 0x00, 0x2c, 0x00, 0x00, 0x00, 0x02, 0x00, 0x00, 0x00,
  0x10, 0x00, 0x00, 0x00, 0x70, 0x00, 0x00, 0x00, 0x17, 0x00, 0x00, 0x00,
  0x73, 0x65, 0x71, 0x75, 0x65, 0x6e, 0x74, 0x69, 0x61, 0x6c, 0x2f, 0x64,
  0x65, 0x6e, 0x73, 0x65, 0x2f, 0x4d, 0x61, 0x74, 0x4d, 0x75, 0x6c, 0x00,
  0x34, 0xfe, 0xff, 0xff, 0x2a, 0xff, 0xff, 0xff, 0x04, 0x00, 0x00, 0x00,
  0x08, 0x00, 0x00, 0x00, 0xff, 0xff, 0xff, 0xff, 0x70, 0x00, 0x00, 0x00,
  0x00, 0x00, 0x0e, 0x00, 0x18, 0x00, 0x08, 0x00, 0x07, 0x00, 0x0c, 0x00,
  0x10, 0x00, 0x14, 0x00, 0x0e, 0x00, 0x00, 0x00, 0x00, 0x00, 0x00, 0x02,
  0x10, 0x00, 0x00, 0x00, 0x04, 0x00, 0x00, 0x00, 0x10, 0x00, 0x00, 0x00,
  0x2c, 0x00, 0x00, 0x00, 0x01, 0x00, 0x00, 0x00, 0x02, 0x00, 0x00, 0x00,
  0x18, 0x00, 0x00, 0x00, 0x73, 0x65, 0x71, 0x75, 0x65, 0x6e, 0x74, 0x69,
  0x61, 0x6c, 0x2f, 0x66, 0x6c, 0x61, 0x74, 0x74, 0x65, 0x6e, 0x2f, 0x43,
  0x6f, 0x6e, 0x73, 0x74, 0x00, 0x00, 0x00, 0x00, 0x9c, 0xfe, 0xff, 0xff,
  0x92, 0xff, 0xff, 0xff, 0x04, 0x00, 0x00, 0x00, 0x10, 0x00, 0x00, 0x00,
  0xf0, 0x95, 0xe9, 0xbf, 0x25, 0x24, 0x70, 0xc0, 0xc3, 0x08, 0x49, 0xc0,
  0xb0, 0xe6, 0x67, 0x40, 0x0a, 0xff, 0xff, 0xff, 0x10, 0x00, 0x00, 0x00,
  0x03, 0x00, 0x00, 0x00, 0x10, 0x00, 0x00, 0x00, 0x3c, 0x00, 0x00, 0x00,
  0x01, 0x00, 0x00, 0x00, 0x04, 0x00, 0x00, 0x00, 0x29, 0x00, 0x00, 0x00,
  0x73, 0x65, 0x71, 0x75, 0x65, 0x6e, 0x74, 0x69, 0x61, 0x6c, 0x2f, 0x64,
  0x65, 0x6e, 0x73, 0x65, 0x5f, 0x31, 0x2f, 0x42, 0x69, 0x61, 0x73, 0x41,
  0x64, 0x64, 0x2f, 0x52, 0x65, 0x61, 0x64, 0x56, 0x61, 0x72, 0x69, 0x61,
  0x62, 0x6c, 0x65, 0x4f, 0x70, 0x00, 0x00, 0x00, 0x60, 0xff, 0xff, 0xff,
  0x00, 0x00, 0x06, 0x00, 0x08, 0x00, 0x04, 0x00, 0x06, 0x00, 0x00, 0x00,
  0x04, 0x00, 0x00, 0x00, 0x40, 0x00, 0x00, 0x00, 0xf6, 0x1d, 0x9a, 0xbd,
  0xae, 0x85, 0x46, 0xbe, 0x08, 0x1b, 0x3d, 0xbf, 0xfe, 0xc5, 0x80, 0xbf,
  0x18, 0xd2, 0xe9, 0x3f, 0xf1, 0xc8, 0xa8, 0xbf, 0xa8, 0xeb, 0xb2, 0xbf,
  0xdd, 0x1d, 0xe6, 0xbe, 0x5c, 0xc0, 0x55, 0x3f, 0x25, 0x50, 0x1a, 0xbf,
  0x04, 0x68, 0x7b, 0xbf, 0xde, 0x44, 0xc5, 0xbe, 0xe7, 0x6b, 0x08, 0x3e,
  0xdb, 0xe1, 0x96, 0xbe, 0x6b, 0x35, 0x15, 0xbf, 0xc3, 0xfa, 0xab, 0xbd,
  0xae, 0xff, 0xff, 0xff, 0x10, 0x00, 0x00, 0x00, 0x02, 0x00, 0x00, 0x00,
  0x10, 0x00, 0x00, 0x00, 0x3c, 0x00, 0x00, 0x00, 0x01, 0x00, 0x00, 0x00,
  0x10, 0x00, 0x00, 0x00, 0x27, 0x00, 0x00, 0x00, 0x73, 0x65, 0x71, 0x75,
  0x65, 0x6e, 0x74, 0x69, 0x61, 0x6c, 0x2f, 0x64, 0x65, 0x6e, 0x73, 0x65,
  0x2f, 0x42, 0x69, 0x61, 0x73, 0x41, 0x64, 0x64, 0x2f, 0x52, 0x65, 0x61,
  0x64, 0x56, 0x61, 0x72, 0x69, 0x61, 0x62, 0x6c, 0x65, 0x4f, 0x70, 0x00,
  0x04, 0x00, 0x06, 0x00, 0x04, 0x00, 0x00, 0x00, 0x00, 0x00, 0x0e, 0x00,
  0x14, 0x00, 0x04, 0x00, 0x00, 0x00, 0x08, 0x00, 0x0c, 0x00, 0x10, 0x00,
  0x0e, 0x00, 0x00, 0x00, 0x10, 0x00, 0x00, 0x00, 0x01, 0x00, 0x00, 0x00,
  0x1c, 0x00, 0x00, 0x00, 0x2c, 0x00, 0x00, 0x00, 0x04, 0x00, 0x00, 0x00,
  0x01, 0x00, 0x00, 0x00, 0x40, 0x00, 0x00, 0x00, 0x03, 0x00, 0x00, 0x00,
  0x01, 0x00, 0x00, 0x00, 0x0c, 0x00, 0x00, 0x00, 0x63, 0x6f, 0x6e, 0x76,
  0x32, 0x64, 0x5f, 0x69, 0x6e, 0x70, 0x75, 0x74, 0x00, 0x00, 0x00, 0x00,
  0xfc, 0xff, 0xff, 0xff, 0x04, 0x00, 0x04, 0x00, 0x04, 0x00, 0x00, 0x00
};


unsigned int model_tflite_len = 12384;// Fill the int in `src/model.cc` here